{
  "version": "1.0",
  "truncation": null,
  "padding": null,
  "added_tokens": [
    {
      "id": 0,
      "content": "[PAD]",
      "single_word": false,
      "lstrip": false,
      "rstrip": false,
      "normalized": false,
      "special": true
    },
    {
      "id": 1,
      "content": "[UNK]",
      "single_word": false,
      "lstrip": false,
      "rstrip": false,
      "normalized": false,
      "special": true
    },
    {
      "id": 2,
      "content": "[CLS]",
      "single_word": false,
      "lstrip": false,
      "rstrip": false,
      "normalized": false,
      "special": true
    },
    {
      "id": 3,
      "content": "[SEP]",
      "single_word": false,
      "lstrip": false,
      "rstrip": false,
      "normalized": false,
      "special": true
    },
    {
      "id": 4,
      "content": "[MASK]",
      "single_word": false,
      "lstrip": false,
      "rstrip": false,
      "normalized": false,
      "special": true
    }
  ],
  "normalizer": {
    "type": "BertNormalizer",
    "clean_text": true,
    "handle_chinese_chars": true,
    "strip_accents": null,
    "lowercase": true
  },
  "pre_tokenizer": {
    "type": "BertPreTokenizer"
  },
  "post_processor": {
    "type": "TemplateProcessing",
    "single": [
      {
        "SpecialToken": {
          "id": "[CLS]",
          "type_id": 0
        }
      },
      {
        "Sequence": {
          "id": "A",
          "type_id": 0
        }
      },
      {
        "SpecialToken": {
          "id": "[SEP]",
          "type_id": 0
        }
      }
    ],
    "pair": [
      {
        "SpecialToken": {
          "id": "[CLS]",
          "type_id": 0
        }
      },
      {
        "Sequence": {
          "id": "A",
          "type_id": 0
        }
      },
      {
        "SpecialToken": {
          "id": "[SEP]",
          "type_id": 0
        }
      },
      {
        "Sequence": {
          "id": "B",
          "type_id": 1
        }
      },
      {
        "SpecialToken": {
          "id": "[SEP]",
          "type_id": 1
        }
      }
    ],
    "special_tokens": {
      "[CLS]": {
        "id": "[CLS]",
        "ids": [
          2
        ],
        "tokens": [
          "[CLS]"
        ]
      },
      "[SEP]": {
        "id": "[SEP]",
        "ids": [
          3
        ],
        "tokens": [
          "[SEP]"
        ]
      }
    }
  },
  "decoder": {
    "type": "WordPiece",
    "prefix": "##",
    "cleanup": true
  },
  "model": {
    "type": "WordPiece",
    "unk_token": "[UNK]",
    "continuing_subword_prefix": "##",
    "max_input_chars_per_word": 100,
    "vocab": {
      "[PAD]": 0,
      "[UNK]": 1,
      "[CLS]": 2,
      "[SEP]": 3,
      "[MASK]": 4,
      "!": 5,
      "#": 6,
      "$": 7,
      "%": 8,
      "&": 9,
      "'": 10,
      "(": 11,
      ")": 12,
      "*": 13,
      "+": 14,
      ",": 15,
      "-": 16,
      ".": 17,
      "/": 18,
      "0": 19,
      "1": 20,
      "2": 21,
      "3": 22,
      "4": 23,
      "5": 24,
      "6": 25,
      "7": 26,
      "8": 27,
      "9": 28,
      ":": 29,
      ";": 30,
      "<": 31,
      "=": 32,
      ">": 33,
      "?": 34,
      "@": 35,
      "[": 36,
      "\\": 37,
      "]": 38,
      "^": 39,
      "_": 40,
      "`": 41,
      "a": 42,
      "b": 43,
      "c": 44,
      "d": 45,
      "e": 46,
      "f": 47,
      "g": 48,
      "h": 49,
      "i": 50,
      "j": 51,
      "k": 52,
      "l": 53,
      "m": 54,
      "n": 55,
      "o": 56,
      "p": 57,
      "q": 58,
      "r": 59,
      "s": 60,
      "t": 61,
      "u": 62,
      "v": 63,
      "w": 64,
      "x": 65,
      "y": 66,
      "z": 67,
      "{": 68,
      "|": 69,
      "}": 70,
      "~": 71,
      "¡": 72,
      "¢": 73,
      "£": 74,
      "¤": 75,
      "¥": 76,
      "¦": 77,
      "§": 78,
      "¨": 79,
      "©": 80,
      "ª": 81,
      "«": 82,
      "¬": 83,
      "®": 84,
      "¯": 85,
      "°": 86,
      "±": 87,
      "²": 88,
      "³": 89,
      "´": 90,
      "µ": 91,
      "¶": 92,
      "·": 93,
      "¸": 94,
      "¹": 95,
      "º": 96,
      "»": 97,
      "¼": 98,
      "½": 99,
      "¾": 100,
      "¿": 101,
      "×": 102,
      "ß": 103,
      "æ": 104,
      "ð": 105,
      "÷": 106,
      "ø": 107,
      "þ": 108,
      "đ": 109,
      "ħ": 110,
      "ı": 111,
      "ĸ": 112,
      "ł": 113,
      "ŋ": 114,
      "œ": 115,
      "ƅ": 116,
      "ƈ": 117,
      "ƍ": 118,
      "ƒ": 119,
      "ƙ": 120,
      "ƛ": 121,
      "ƞ": 122,
      "ƭ": 123,
      "ƴ": 124,
      "ƶ": 125,
      "ƿ": 126,
      "ǀ": 127,
      "ǁ": 128,
      "ǂ": 129,
      "ǝ": 130,
      "ȣ": 131,
      "ȥ": 132,
      "ȵ": 133,
      "ȶ": 134,
      "ȼ": 135,
      "ɐ": 136,
      "ɑ": 137,
      "ɒ": 138,
      "ɓ": 139,
      "ɔ": 140,
      "ɕ": 141,
      "ɖ": 142,
      "ə": 143,
      "ɚ": 144,
      "ɛ": 145,
      "ɝ": 146,
      "ɡ": 147,
      "ɣ": 148,
      "ɤ": 149,
      "ɥ": 150,
      "ɨ": 151,
      "ɩ": 152,
      "ɪ": 153,
      "ɬ": 154,
      "ɭ": 155,
      "ɮ": 156,
      "ɯ": 157,
      "ɲ": 158,
      "ɳ": 159,
      "ɵ": 160,
      "ɷ": 161,
      "ɸ": 162,
      "ɹ": 163,
      "ɻ": 164,
      "ɾ": 165,
      "ɿ": 166,
      "ʀ": 167,
      "ʁ": 168,
      "ʂ": 169,
      "ʃ": 170,
      "ʅ": 171,
      "ʈ": 172,
      "ʉ": 173,
      "ʊ": 174,
      "ʋ": 175,
      "ʌ": 176,
      "ʎ": 177,
      "ʐ": 178,
      "ʑ": 179,
      "ʒ": 180,
      "ʔ": 181,
      "ʕ": 182,
      "ʘ": 183,
      "ʝ": 184,
      "ʟ": 185,
      "ʦ": 186,
      "ʧ": 187,
      "ʰ": 188,
      "ʱ": 189,
      "ʲ": 190,
      "ʷ": 191,
      "ʹ": 192,
      "ʺ": 193,
      "ʼ": 194,
      "ʾ": 195,
      "ˁ": 196,
      "˂": 197,
      "˃": 198,
      "˄": 199,
      "ˆ": 200,
      "ˇ": 201,
      "ˉ": 202,
      "ː": 203,
      "ˑ": 204,
      "˖": 205,
      "˘": 206,
      "˙": 207,
      "˚": 208,
      "˜": 209,
      "˝": 210,
      "˞": 211,
      "˟": 212,
      "ˠ": 213,
      "ˤ": 214,
      "˪": 215,
      "˭": 216,
      "ˮ": 217,
      "˴": 218,
      "ͳ": 219,
      "ͻ": 220,
      "΀": 221,
      "΁": 222,
      "΂": 223,
      "΃": 224,
      "΄": 225,
      "΍": 226,
      "α": 227,
      "β": 228,
      "γ": 229,
      "δ": 230,
      "ε": 231,
      "ζ": 232,
      "η": 233,
      "θ": 234,
      "ι": 235,
      "κ": 236,
      "λ": 237,
      "μ": 238,
      "ν": 239,
      "ξ": 240,
      "ο": 241,
      "π": 242,
      "ρ": 243,
      "ς": 244,
      "σ": 245,
      "τ": 246,
      "υ": 247,
      "φ": 248,
      "χ": 249,
      "ψ": 250,
      "ω": 251,
      "ϐ": 252,
      "ϑ": 253,
      "ϒ": 254,
      "ϕ": 255,
      "ϖ": 256,
      "ϝ": 257,
      "ϫ": 258,
      "ϭ": 259,
      "ϰ": 260,
      "ϱ": 261,
      "ϲ": 262,
      "ϵ": 263,
      "ϻ": 264,
      "ϼ": 265,
      "а": 266,
      "б": 267,
      "в": 268,
      "г": 269,
      "д": 270,
      "е": 271,
      "ж": 272,
      "з": 273,
      "и": 274,
      "к": 275,
      "л": 276,
      "м": 277,
      "н": 278,
      "о": 279,
      "п": 280,
      "р": 281,
      "с": 282,
      "т": 283,
      "у": 284,
      "ф": 285,
      "х": 286,
      "ц": 287,
      "ч": 288,
      "ш": 289,
      "щ": 290,
      "ь": 291,
      "э": 292,
      "ю": 293,
      "я": 294,
      "є": 295,
      "ѕ": 296,
      "і": 297,
      "ј": 298,
      "ћ": 299,
      "ѱ": 300,
      "ѳ": 301,
      "ѵ": 302,
      "ґ": 303,
      "қ": 304,
      "ҝ": 305,
      "ҡ": 306,
      "ҫ": 307,
      "ү": 308,
      "ұ": 309,
      "ҳ": 310,
      "һ": 311,
      "ӏ": 312,
      "ӕ": 313,
      "ә": 314,
      "ө": 315,
      "ӽ": 316,
      "ԏ": 317,
      "ԑ": 318,
      "՚": 319,
      "־": 320,
      "א": 321,
      "י": 322,
      "ץ": 323,
      "ר": 324,
      "ש": 325,
      "׳": 326,
      "״": 327,
      "،": 328,
      "ا": 329,
      "ة": 330,
      "ت": 331,
      "ح": 332,
      "خ": 333,
      "د": 334,
      "ر": 335,
      "ز": 336,
      "ش": 337,
      "ط": 338,
      "ع": 339,
      "ـ": 340,
      "ف": 341,
      "ل": 342,
      "م": 343,
      "و": 344,
      "٠": 345,
      "١": 346,
      "٢": 347,
      "٤": 348,
      "٪": 349,
      "٭": 350,
      "ۥ": 351,
      "ߚ": 352,
      "ߝ": 353,
      "ࣈ": 354,
      "क": 355,
      "च": 356,
      "ण": 357,
      "फ": 358,
      "र": 359,
      "ल": 360,
      "ा": 361,
      "०": 362,
      "ก": 363,
      "ข": 364,
      "ง": 365,
      "ต": 366,
      "ท": 367,
      "น": 368,
      "บ": 369,
      "พ": 370,
      "ฟ": 371,
      "ภ": 372,
      "ย": 373,
      "ร": 374,
      "ล": 375,
      "ว": 376,
      "ศ": 377,
      "ห": 378,
      "อ": 379,
      "ะ": 380,
      "า": 381,
      "฿": 382,
      "แ": 383,
      "ใ": 384,
      "༌": 385,
      "ခ": 386,
      "ᄀ": 387,
      "ᄁ": 388,
      "ᄂ": 389,
      "ᄃ": 390,
      "ᄄ": 391,
      "ᄅ": 392,
      "ᄆ": 393,
      "ᄇ": 394,
      "ᄉ": 395,
      "ᄋ": 396,
      "ᄌ": 397,
      "ᄎ": 398,
      "ᄏ": 399,
      "ᄐ": 400,
      "ᄑ": 401,
      "ᄒ": 402,
      "ᅟ": 403,
      "ᅡ": 404,
      "ᅢ": 405,
      "ᅣ": 406,
      "ᅥ": 407,
      "ᅦ": 408,
      "ᅧ": 409,
      "ᅨ": 410,
      "ᅩ": 411,
      "ᅪ": 412,
      "ᅬ": 413,
      "ᅭ": 414,
      "ᅮ": 415,
      "ᅯ": 416,
      "ᅰ": 417,
      "ᅱ": 418,
      "ᅲ": 419,
      "ᅳ": 420,
      "ᅴ": 421,
      "ᅵ": 422,
      "ᆨ": 423,
      "ᆩ": 424,
      "ᆪ": 425,
      "ᆫ": 426,
      "ᆭ": 427,
      "ᆯ": 428,
      "ᆲ": 429,
      "ᆷ": 430,
      "ᆸ": 431,
      "ᆺ": 432,
      "ᆻ": 433,
      "ᆼ": 434,
      "ᆾ": 435,
      "ᇀ": 436,
      "ᇂ": 437,
      "ᇞ": 438,
      "᛫": 439,
      "ᴂ": 440,
      "ᴅ": 441,
      "ᴋ": 442,
      "ᴍ": 443,
      "ᴏ": 444,
      "ᴐ": 445,
      "ᴓ": 446,
      "ᴨ": 447,
      "ᴪ": 448,
      "ᴳ": 449,
      "ᴼ": 450,
      "ᵒ": 451,
      "ᵗ": 452,
      "ᵝ": 453,
      "ᵧ": 454,
      "ᵪ": 455,
      "ᵯ": 456,
      "ᵹ": 457,
      "ᶲ": 458,
      "᾽": 459,
      "᾿": 460,
      "῾": 461,
      "‑": 462,
      "‒": 463,
      "—": 464,
      "―": 465,
      "‖": 466,
      "‘": 467,
      "’": 468,
      "‚": 469,
      "‛": 470,
      "“": 471,
      "”": 472,
      "„": 473,
      "‟": 474,
      "†": 475,
      "‡": 476,
      "•": 477,
      "‥": 478,
      "…": 479,
      "‧": 480,
      "‰": 481,
      "‱": 482,
      "′": 483,
      "″": 484,
      "‴": 485,
      "‹": 486,
      "›": 487,
      "※": 488,
      "‾": 489,
      "‿": 490,
      "⁁": 491,
      "⁃": 492,
      "⁄": 493,
      "⁎": 494,
      "⁓": 495,
      "⁗": 496,
      "⁰": 497,
      "ⁱ": 498,
      "⁴": 499,
      "⁵": 500,
      "⁶": 501,
      "⁷": 502,
      "⁸": 503,
      "⁹": 504,
      "⁺": 505,
      "⁻": 506,
      "⁽": 507,
      "⁾": 508,
      "ⁿ": 509,
      "₀": 510,
      "₁": 511,
      "₂": 512,
      "₃": 513,
      "₄": 514,
      "₅": 515,
      "₆": 516,
      "₇": 517,
      "₈": 518,
      "₉": 519,
      "₋": 520,
      "₌": 521,
      "ₐ": 522,
      "ₓ": 523,
      "₣": 524,
      "₤": 525,
      "₦": 526,
      "₩": 527,
      "€": 528,
      "₱": 529,
      "₵": 530,
      "₹": 531,
      "₺": 532,
      "ℂ": 533,
      "℃": 534,
      "℅": 535,
      "ℇ": 536,
      "ℋ": 537,
      "ℏ": 538,
      "ℐ": 539,
      "ℑ": 540,
      "ℒ": 541,
      "ℓ": 542,
      "ℕ": 543,
      "№": 544,
      "℗": 545,
      "ℙ": 546,
      "ℛ": 547,
      "ℜ": 548,
      "ℝ": 549,
      "℞": 550,
      "℠": 551,
      "™": 552,
      "ℤ": 553,
      "℧": 554,
      "ℬ": 555,
      "ℰ": 556,
      "ℱ": 557,
      "ℳ": 558,
      "ℴ": 559,
      "ℵ": 560,
      "ℽ": 561,
      "ⅅ": 562,
      "⅓": 563,
      "⅔": 564,
      "⅗": 565,
      "⅙": 566,
      "⅚": 567,
      "⅛": 568,
      "⅜": 569,
      "ⅰ": 570,
      "ⅱ": 571,
      "ⅲ": 572,
      "ⅳ": 573,
      "ⅴ": 574,
      "ⅵ": 575,
      "ⅶ": 576,
      "ⅷ": 577,
      "ⅸ": 578,
      "ⅹ": 579,
      "ⅺ": 580,
      "ⅻ": 581,
      "←": 582,
      "↑": 583,
      "→": 584,
      "↓": 585,
      "↔": 586,
      "↕": 587,
      "↗": 588,
      "↘": 589,
      "↙": 590,
      "↝": 591,
      "↦": 592,
      "↷": 593,
      "↼": 594,
      "⇀": 595,
      "⇄": 596,
      "⇆": 597,
      "⇋": 598,
      "⇌": 599,
      "⇐": 600,
      "⇑": 601,
      "⇒": 602,
      "⇓": 603,
      "⇔": 604,
      "⇝": 605,
      "⇨": 606,
      "∀": 607,
      "∂": 608,
      "∅": 609,
      "∆": 610,
      "∇": 611,
      "∈": 612,
      "∊": 613,
      "∋": 614,
      "∎": 615,
      "∏": 616,
      "∐": 617,
      "∑": 618,
      "−": 619,
      "∓": 620,
      "∕": 621,
      "∖": 622,
      "∗": 623,
      "∘": 624,
      "∙": 625,
      "√": 626,
      "∛": 627,
      "∝": 628,
      "∞": 629,
      "∟": 630,
      "∠": 631,
      "∡": 632,
      "∢": 633,
      "∣": 634,
      "∥": 635,
      "∧": 636,
      "∨": 637,
      "∩": 638,
      "∪": 639,
      "∫": 640,
      "∴": 641,
      "∶": 642,
      "∷": 643,
      "∸": 644,
      "∼": 645,
      "∽": 646,
      "∾": 647,
      "≂": 648,
      "≃": 649,
      "≅": 650,
      "≈": 651,
      "≊": 652,
      "≌": 653,
      "≍": 654,
      "≏": 655,
      "≐": 656,
      "≑": 657,
      "≒": 658,
      "≔": 659,
      "≙": 660,
      "≡": 661,
      "≣": 662,
      "≤": 663,
      "≥": 664,
      "≦": 665,
      "≧": 666,
      "≨": 667,
      "≪": 668,
      "≫": 669,
      "≲": 670,
      "≳": 671,
      "≺": 672,
      "≻": 673,
      "≽": 674,
      "≿": 675,
      "⊂": 676,
      "⊃": 677,
      "⊆": 678,
      "⊕": 679,
      "⊖": 680,
      "⊗": 681,
      "⊘": 682,
      "⊙": 683,
      "⊞": 684,
      "⊟": 685,
      "⊠": 686,
      "⊣": 687,
      "⊤": 688,
      "⊥": 689,
      "⊿": 690,
      "⋄": 691,
      "⋅": 692,
      "⋆": 693,
      "⋊": 694,
      "⋘": 695,
      "⋙": 696,
      "⋜": 697,
      "⋝": 698,
      "⋮": 699,
      "⋯": 700,
      "⌀": 701,
      "⌈": 702,
      "⌉": 703,
      "⌊": 704,
      "⌋": 705,
      "⌜": 706,
      "⌝": 707,
      "⌢": 708,
      "⌣": 709,
      "⍴": 710,
      "⍵": 711,
      "⍺": 712,
      "⎕": 713,
      "⎼": 714,
      "␣": 715,
      "①": 716,
      "②": 717,
      "③": 718,
      "④": 719,
      "⑤": 720,
      "⑥": 721,
      "⑦": 722,
      "⑧": 723,
      "⑨": 724,
      "⑩": 725,
      "⑴": 726,
      "⑵": 727,
      "⑶": 728,
      "ⓒ": 729,
      "ⓝ": 730,
      "ⓡ": 731,
      "─": 732,
      "│": 733,
      "├": 734,
      "┤": 735,
      "┬": 736,
      "┴": 737,
      "═": 738,
      "║": 739,
      "╪": 740,
      "╳": 741,
      "█": 742,
      "░": 743,
      "▒": 744,
      "▓": 745,
      "■": 746,
      "□": 747,
      "▪": 748,
      "▫": 749,
      "▬": 750,
      "▯": 751,
      "▲": 752,
      "△": 753,
      "▴": 754,
      "▵": 755,
      "▶": 756,
      "▸": 757,
      "▹": 758,
      "►": 759,
      "▼": 760,
      "▽": 761,
      "▾": 762,
      "▿": 763,
      "◆": 764,
      "◇": 765,
      "◊": 766,
      "○": 767,
      "●": 768,
      "◦": 769,
      "◻": 770,
      "◽": 771,
      "★": 772,
      "☆": 773,
      "☉": 774,
      "☐": 775,
      "☓": 776,
      "☺": 777,
      "♀": 778,
      "♂": 779,
      "♢": 780,
      "♦": 781,
      "♪": 782,
      "♭": 783,
      "♯": 784,
      "✓": 785,
      "✕": 786,
      "✜": 787,
      "✧": 788,
      "✴": 789,
      "✶": 790,
      "➁": 791,
      "➔": 792,
      "➝": 793,
      "➢": 794,
      "➤": 795,
      "⟂": 796,
      "⟦": 797,
      "⟧": 798,
      "⟨": 799,
      "⟩": 800,
      "⟵": 801,
      "⟶": 802,
      "⦁": 803,
      "⦵": 804,
      "⧧": 805,
      "⧸": 806,
      "⧹": 807,
      "⨉": 808,
      "⨪": 809,
      "⨯": 810,
      "⩒": 811,
      "⩼": 812,
      "⩽": 813,
      "⩾": 814,
      "⩿": 815,
      "⪅": 816,
      "⪆": 817,
      "⪕": 818,
      "⪖": 819,
      "⪝": 820,
      "⪡": 821,
      "⪢": 822,
      "⫽": 823,
      "⬄": 824,
      "⬜": 825,
      "⬡": 826,
      "⬢": 827,
      "⬰": 828,
      "⬽": 829,
      "ⱪ": 830,
      "⸱": 831,
      "⿿": 832,
      "、": 833,
      "。": 834,
      "〈": 835,
      "〉": 836,
      "《": 837,
      "》": 838,
      "「": 839,
      "」": 840,
      "【": 841,
      "】": 842,
      "〓": 843,
      "〔": 844,
      "〕": 845,
      "〖": 846,
      "〗": 847,
      "〜": 848,
      "〝": 849,
      "〟": 850,
      "ア": 851,
      "カ": 852,
      "ヒ": 853,
      "メ": 854,
      "リ": 855,
      "レ": 856,
      "・": 857,
      "ㅣ": 858,
      "ㆍ": 859,
      "㎂": 860,
      "㎍": 861,
      "㎖": 862,
      "㎛": 863,
      "㎝": 864,
      "㎟": 865,
      "㎡": 866,
      "㎶": 867,
      "㒐": 868,
      "丸": 869,
      "参": 870,
      "囊": 871,
      "大": 872,
      "射": 873,
      "方": 874,
      "气": 875,
      "汤": 876,
      "注": 877,
      "消": 878,
      "液": 879,
      "清": 880,
      "潜": 881,
      "瘀": 882,
      "益": 883,
      "祛": 884,
      "粒": 885,
      "肝": 886,
      "肾": 887,
      "胶": 888,
      "芪": 889,
      "补": 890,
      "颗": 891,
      "饮": 892,
      "骨": 893,
      "꞉": 894,
      "꞊": 895,
      "ꞌ": 896,
      "ꞵ": 897,
      "ﬀ": 898,
      "ﬁ": 899,
      "ﬂ": 900,
      "ﬃ": 901,
      "ﬄ": 902,
      "ﬅ": 903,
      "﴾": 904,
      "﴿": 905,
      "︰": 906,
      "﹒": 907,
      "﹛": 908,
      "﹢": 909,
      "﹣": 910,
      "﹤": 911,
      "﹥": 912,
      "﹩": 913,
      "＄": 914,
      "％": 915,
      "＆": 916,
      "＇": 917,
      "（": 918,
      "）": 919,
      "＊": 920,
      "＋": 921,
      "，": 922,
      "－": 923,
      "．": 924,
      "：": 925,
      "；": 926,
      "＜": 927,
      "＝": 928,
      "＞": 929,
      "？": 930,
      "［": 931,
      "］": 932,
      "＾": 933,
      "＿": 934,
      "ｃ": 935,
      "ｉ": 936,
      "ｍ": 937,
      "ｐ": 938,
      "ｖ": 939,
      "｛": 940,
      "｜": 941,
      "｝": 942,
      "～": 943,
      "､": 944,
      "･": 945,
      "ｱ": 946,
      "ｵ": 947,
      "ﾀ": 948,
      "ﾓ": 949,
      "ￗ": 950,
      "￡": 951,
      "￢": 952,
      "￥": 953,
      "￦": 954,
      "￼": 955,
      "𝐑": 956,
      "𝐟": 957,
      "𝐫": 958,
      "𝐴": 959,
      "𝐸": 960,
      "𝑃": 961,
      "𝑐": 962,
      "𝑑": 963,
      "𝑒": 964,
      "𝑓": 965,
      "𝑖": 966,
      "𝑛": 967,
      "𝑜": 968,
      "𝑟": 969,
      "𝑡": 970,
      "𝑥": 971,
      "𝒆": 972,
      "𝒙": 973,
      "𝒞": 974,
      "𝒟": 975,
      "𝒦": 976,
      "𝒩": 977,
      "𝒪": 978,
      "𝒫": 979,
      "𝒮": 980,
      "𝒯": 981,
      "𝓟": 982,
      "𝓣": 983,
      "𝔇": 984,
      "𝔐": 985,
      "𝔹": 986,
      "𝕊": 987,
      "𝕜": 988,
      "𝖱": 989,
      "𝘗": 990,
      "𝛂": 991,
      "𝛆": 992,
      "𝛼": 993,
      "𝛽": 994,
      "𝜀": 995,
      "𝜃": 996,
      "𝜅": 997,
      "𝜇": 998,
      "𝜋": 999,
      "𝜌": 1000,
      "𝜒": 1001,
      "𝜖": 1002,
      "𝜗": 1003,
      "𝝁": 1004,
      "##y": 1005,
      "##q": 1006,
      "##e": 1007,
      "##0": 1008,
      "##5": 1009,
      "##3": 1010,
      "##8": 1011,
      "##a": 1012,
      "##g": 1013,
      "##p": 1014,
      "##c": 1015,
      "##t": 1016,
      "##4": 1017,
      "##6": 1018,
      "##7": 1019,
      "##2": 1020,
      "##h": 1021,
      "##d": 1022,
      "##i": 1023,
      "##n": 1024,
      "##o": 1025,
      "##s": 1026,
      "##r": 1027,
      "##w": 1028,
      "##u": 1029,
      "##k": 1030,
      "##b": 1031,
      "##f": 1032,
      "##l": 1033,
      "##m": 1034,
      "##z": 1035,
      "##v": 1036,
      "##1": 1037,
      "##9": 1038,
      "##⋮": 1039,
      "##°": 1040,
      "##x": 1041,
      "##j": 1042,
      "##≈": 1043,
      "##₃": 1044,
      "##∙": 1045,
      "##λ": 1046,
      "##⁻": 1047,
      "##μ": 1048,
      "##ø": 1049,
      "##∼": 1050,
      "##→": 1051,
      "##δ": 1052,
      "##×": 1053,
      "##™": 1054,
      "##∕": 1055,
      "##≫": 1056,
      "##β": 1057,
      "##±": 1058,
      "##₂": 1059,
      "##₆": 1060,
      "##⩽": 1061,
      "##€": 1062,
      "##®": 1063,
      "##∓": 1064,
      "##α": 1065,
      "##с": 1066,
      "##γ": 1067,
      "##£": 1068,
      "##≡": 1069,
      "##⋯": 1070,
      "##π": 1071,
      "##═": 1072,
      "##⋆": 1073,
      "##ρ": 1074,
      "##µ": 1075,
      "##σ": 1076,
      "##₅": 1077,
      "##₄": 1078,
      "##˚": 1079,
      "##ᅴ": 1080,
      "##ᄇ": 1081,
      "##ᅡ": 1082,
      "##ᆼ": 1083,
      "##ᄋ": 1084,
      "##ᅲ": 1085,
      "##ᄌ": 1086,
      "##ᅱ": 1087,
      "##₋": 1088,
      "##ﬁ": 1089,
      "##´": 1090,
      "##₇": 1091,
      "##ε": 1092,
      "##ß": 1093,
      "##＋": 1094,
      "##η": 1095,
      "##©": 1096,
      "##б": 1097,
      "##³": 1098,
      "##е": 1099,
      "##ı": 1100,
      "##□": 1101,
      "##∗": 1102,
      "##∶": 1103,
      "##⁄": 1104,
      "##−": 1105,
      "##ϕ": 1106,
      "##⊂": 1107,
      "##˙": 1108,
      "##º": 1109,
      "##∆": 1110,
      "##↓": 1111,
      "##κ": 1112,
      "##∞": 1113,
      "##⁺": 1114,
      "##₈": 1115,
      "##ﬂ": 1116,
      "##ι": 1117,
      "##⁸": 1118,
      "##∷": 1119,
      "##⋅": 1120,
      "##²": 1121,
      "##⁰": 1122,
      "##æ": 1123,
      "##↔": 1124,
      "##₁": 1125,
      "##ζ": 1126,
      "##τ": 1127,
      "##÷": 1128,
      "##＝": 1129,
      "##∘": 1130,
      "##¹": 1131,
      "##⁷": 1132,
      "##⁶": 1133,
      "##χ": 1134,
      "##ω": 1135,
      "##ϒ": 1136,
      "##ℏ": 1137,
      "##ˆ": 1138,
      "##ф": 1139,
      "##о": 1140,
      "##↑": 1141,
      "##⩾": 1142,
      "##φ": 1143,
      "##¬": 1144,
      "##ϵ": 1145,
      "##υ": 1146,
      "##₉": 1147,
      "##θ": 1148,
      "##ψ": 1149,
      "##─": 1150,
      "##├": 1151,
      "##≪": 1152,
      "##ł": 1153,
      "##♂": 1154,
      "##ℓ": 1155,
      "##➔": 1156,
      "##ⅱ": 1157,
      "##⁴": 1158,
      "##≳": 1159,
      "##ν": 1160,
      "##～": 1161,
      "##√": 1162,
      "##≲": 1163,
      "##＜": 1164,
      "##к": 1165,
      "##⁹": 1166,
      "##⊃": 1167,
      "##н": 1168,
      "##∝": 1169,
      "##₀": 1170,
      "##⁵": 1171,
      "##¯": 1172,
      "##←": 1173,
      "##ﬀ": 1174,
      "##΄": 1175,
      "##а": 1176,
      "##ə": 1177,
      "##◦": 1178,
      "##≃": 1179,
      "##≅": 1180,
      "##œ": 1181,
      "##ɛ": 1182,
      "##⧹": 1183,
      "##⍺": 1184,
      "##ⅰ": 1185,
      "##ɑ": 1186,
      "##ο": 1187,
      "##⇒": 1188,
      "##♀": 1189,
      "##˂": 1190,
      "##○": 1191,
      "##▴": 1192,
      "##＞": 1193,
      "##⊗": 1194,
      "##р": 1195,
      "##в": 1196,
      "##ж": 1197,
      "##℃": 1198,
      "##∈": 1199,
      "##∧": 1200,
      "##⊙": 1201,
      "##¢": 1202,
      "##м": 1203,
      "##ᅭ": 1204,
      "##ᅵ": 1205,
      "##ᆫ": 1206,
      "##ᅦ": 1207,
      "##∑": 1208,
      "##у": 1209,
      "##з": 1210,
      "##л": 1211,
      "##і": 1212,
      "##≦": 1213,
      "##≧": 1214,
      "##ˮ": 1215,
      "##≒": 1216,
      "##﹥": 1217,
      "##≊": 1218,
      "##¼": 1219,
      "##△": 1220,
      "##ᄅ": 1221,
      "##ᅩ": 1222,
      "##ᅥ": 1223,
      "##ᆨ": 1224,
      "##đ": 1225,
      "##⊥": 1226,
      "##т": 1227,
      "##ⅳ": 1228,
      "##˃": 1229,
      "##ƒ": 1230,
      "##ξ": 1231,
      "##│": 1232,
      "##¾": 1233,
      "##ⅲ": 1234,
      "##ð": 1235,
      "##ϲ": 1236,
      "##ⓒ": 1237,
      "##␣": 1238,
      "##┴": 1239,
      "##∥": 1240,
      "##▪": 1241,
      "##⧧": 1242,
      "##𝛽": 1243,
      "##➝": 1244,
      "##ɣ": 1245,
      "##∇": 1246,
      "##ш": 1247,
      "##ᶲ": 1248,
      "##и": 1249,
      "##г": 1250,
      "##♦": 1251,
      "##∫": 1252,
      "##∩": 1253,
      "##½": 1254,
      "##ﬅ": 1255,
      "##⇋": 1256,
      "##ⅷ": 1257,
      "##˜": 1258,
      "##⧸": 1259,
      "##¨": 1260,
      "##⨯": 1261,
      "##∣": 1262,
      "##ª": 1263,
      "##∨": 1264,
      "##ĸ": 1265,
      "##●": 1266,
      "##▬": 1267,
      "##¥": 1268,
      "##ⅴ": 1269,
      "##⇑": 1270,
      "##⇓": 1271,
      "##⇆": 1272,
      "##⬢": 1273,
      "##∏": 1274,
      "##ɕ": 1275,
      "##℅": 1276,
      "##х": 1277,
      "##⇌": 1278,
      "##ː": 1279,
      "##∪": 1280,
      "##⊕": 1281,
      "##ǀ": 1282,
      "##˖": 1283,
      "##ɒ": 1284,
      "##⬜": 1285,
      "##ᆯ": 1286,
      "##ᆸ": 1287,
      "##д": 1288,
      "##𝐑": 1289,
      "##⇀": 1290,
      "##˝": 1291,
      "##≐": 1292,
      "##þ": 1293,
      "##↷": 1294,
      "##ɹ": 1295,
      "##ʃ": 1296,
      "##ƞ": 1297,
      "##⟶": 1298,
      "##⇄": 1299,
      "##┤": 1300,
      "##ц": 1301,
      "##я": 1302,
      "##ߚ": 1303,
      "##¸": 1304,
      "##п": 1305,
      "##∴": 1306,
      "##⇔": 1307,
      "##№": 1308,
      "##ʱ": 1309,
      "##↦": 1310,
      "##ͳ": 1311,
      "##⪅": 1312,
      "##▵": 1313,
      "##⇝": 1314,
      "##ɚ": 1315,
      "##ᆺ": 1316,
      "##ɐ": 1317,
      "##ɪ": 1318,
      "##②": 1319,
      "##ҡ": 1320,
      "##⊠": 1321,
      "##∂": 1322,
      "##ꞌ": 1323,
      "##≍": 1324,
      "##ˇ": 1325,
      "##▒": 1326,
      "##ю": 1327,
      "##☓": 1328,
      "##∖": 1329,
      "##ˉ": 1330,
      "##┬": 1331,
      "##⎼": 1332,
      "##ₓ": 1333,
      "##ς": 1334,
      "##〓": 1335,
      "##¦": 1336,
      "##ᵒ": 1337,
      "##⋘": 1338,
      "##ⁱ": 1339,
      "##ᆷ": 1340,
      "##ᅳ": 1341,
      "##⅓": 1342,
      "##㎍": 1343,
      "##■": 1344,
      "##♯": 1345,
      "##΀": 1346,
      "##≿": 1347,
      "##ү": 1348,
      "##ᄉ": 1349,
      "##ϭ": 1350,
      "##˞": 1351,
      "##ɸ": 1352,
      "##∅": 1353,
      "##⪢": 1354,
      "##↝": 1355,
      "##ᴂ": 1356,
      "##𝛆": 1357,
      "##ᵝ": 1358,
      "##˄": 1359,
      "##ᵧ": 1360,
      "##ᅪ": 1361,
      "##ᄒ": 1362,
      "##ᄀ": 1363,
      "##ᅧ": 1364,
      "##ᄃ": 1365,
      "##∊": 1366,
      "##ᅟ": 1367,
      "##¤": 1368,
      "##☉": 1369,
      "##ʰ": 1370,
      "##ⓡ": 1371,
      "##ᄆ": 1372,
      "##ϐ": 1373,
      "##ר": 1374,
      "##א": 1375,
      "##ש": 1376,
      "##י": 1377,
      "##｜": 1378,
      "##▓": 1379,
      "##ч": 1380,
      "##ь": 1381,
      "##ᄑ": 1382,
      "##ᆩ": 1383,
      "##ᄂ": 1384,
      "##ˑ": 1385,
      "##⊖": 1386,
      "##⦁": 1387,
      "##ℑ": 1388,
      "##ℇ": 1389,
      "##ⅺ": 1390,
      "##⋜": 1391,
      "##᾿": 1392,
      "##ᅢ": 1393,
      "##￥": 1394,
      "##║": 1395,
      "##є": 1396,
      "##ₐ": 1397,
      "##ᅮ": 1398,
      "##ʼ": 1399,
      "##қ": 1400,
      "##ҫ": 1401,
      "##ฟ": 1402,
      "##น": 1403,
      "##𝒯": 1404,
      "##⊟": 1405,
      "##฿": 1406,
      "##ɔ": 1407,
      "##ʁ": 1408,
      "##⋙": 1409,
      "##ʌ": 1410,
      "##ᅬ": 1411,
      "##ⅶ": 1412,
      "##⪡": 1413,
      "##ϰ": 1414,
      "##ᆾ": 1415,
      "##⊘": 1416,
      "##ـ": 1417,
      "##ᇞ": 1418,
      "##▸": 1419,
      "##✕": 1420,
      "##⋄": 1421,
      "##ℤ": 1422,
      "##ㅣ": 1423,
      "##ﬃ": 1424,
      "##↼": 1425,
      "##อ": 1426,
      "##ง": 1427,
      "##ᵗ": 1428,
      "##ⅸ": 1429,
      "##ɖ": 1430,
      "##ﬄ": 1431,
      "##ʊ": 1432,
      "##⿿": 1433,
      "##╳": 1434,
      "##﹢": 1435,
      "##΍": 1436,
      "##▿": 1437,
      "##ˁ": 1438,
      "##˭": 1439,
      "##≺": 1440,
      "##₣": 1441,
      "##ϖ": 1442,
      "##↕": 1443,
      "##⬰": 1444,
      "##ᄏ": 1445,
      "##⬡": 1446,
      "##⪆": 1447,
      "##↘": 1448,
      "##ᅰ": 1449,
      "##₵": 1450,
      "##า": 1451,
      "##ใ": 1452,
      "##ต": 1453,
      "##บ": 1454,
      "##⊿": 1455,
      "##𝒞": 1456,
      "##ℒ": 1457,
      "##ɳ": 1458,
      "##ѱ": 1459,
      "##ل": 1460,
      "##ƛ": 1461,
      "##ϱ": 1462,
      "##⨉": 1463,
      "##𝑖": 1464,
      "##𝑓": 1465,
      "##𝑒": 1466,
      "##𝑟": 1467,
      "##𝑛": 1468,
      "##𝑡": 1469,
      "##𝑜": 1470,
      "##ว": 1471,
      "##⋝": 1472,
      "##₌": 1473,
      "##ᄐ": 1474,
      "##ℝ": 1475,
      "##ŋ": 1476,
      "##ᆻ": 1477,
      "##ก": 1478,
      "##∽": 1479,
      "##ѕ": 1480,
      "##ӏ": 1481,
      "##٢": 1482,
      "##᾽": 1483,
      "##ħ": 1484,
      "##⬽": 1485,
      "##ɡ": 1486,
      "##ㆍ": 1487,
      "##＾": 1488,
      "##ɩ": 1489,
      "##ᇂ": 1490,
      "##℧": 1491,
      "##ⅻ": 1492,
      "##ǁ": 1493,
      "##ɷ": 1494,
      "##ͻ": 1495,
      "##⌀": 1496,
      "##𝑐": 1497,
      "##ѵ": 1498,
      "##ɤ": 1499,
      "##㎛": 1500,
      "##˘": 1501,
      "##ʒ": 1502,
      "##꞊": 1503,
      "##ा": 1504,
      "##क": 1505,
      "##𝜀": 1506,
      "##ᴏ": 1507,
      "##ⅵ": 1508,
      "##￢": 1509,
      "##ﾀ": 1510,
      "##ﾓ": 1511,
      "##ℱ": 1512,
      "##ᴼ": 1513,
      "##ｱ": 1514,
      "##ʲ": 1515,
      "##ј": 1516,
      "##د": 1517,
      "##م": 1518,
      "##ة": 1519,
      "##♭": 1520,
      "##ᴋ": 1521,
      "##΃": 1522,
      "##₺": 1523,
      "##℗": 1524,
      "##꞉": 1525,
      "##ʹ": 1526,
      "##ᴐ": 1527,
      "##ز": 1528,
      "##ع": 1529,
      "##ر": 1530,
      "##و": 1531,
      "##ᆭ": 1532,
      "##↗": 1533,
      "##﹤": 1534,
      "##ᅨ": 1535,
      "##ƴ": 1536,
      "##𝑑": 1537,
      "##メ": 1538,
      "##リ": 1539,
      "##カ": 1540,
      "##≽": 1541,
      "##≣": 1542,
      "##ʾ": 1543,
      "##ᄎ": 1544,
      "##ᅯ": 1545,
      "##΁": 1546,
      "##⊆": 1547,
      "##ƙ": 1548,
      "##ʂ": 1549,
      "##ℕ": 1550,
      "##ش": 1551,
      "##ا": 1552,
      "##ف": 1553,
      "##⟂": 1554,
      "##≏": 1555,
      "##ᆲ": 1556,
      "##ᆪ": 1557,
      "##ʉ": 1558,
      "##ｵ": 1559,
      "##℠": 1560,
      "##ｍ": 1561,
      "##ƭ": 1562,
      "##ल": 1563,
      "##⊣": 1564,
      "##ˤ": 1565,
      "##ᄄ": 1566,
      "##һ": 1567,
      "##∀": 1568,
      "##ᅣ": 1569,
      "##░": 1570,
      "##ɾ": 1571,
      "##∟": 1572,
      "##ꞵ": 1573,
      "##≔": 1574,
      "##١": 1575,
      "##ت": 1576,
      "##✓": 1577,
      "##ʘ": 1578,
      "##▼": 1579,
      "##ɮ": 1580,
      "##ｉ": 1581,
      "##ｖ": 1582,
      "##ʐ": 1583,
      "##٠": 1584,
      "##≑": 1585,
      "##₦": 1586,
      "##ヒ": 1587,
      "##ǂ": 1588,
      "##𝜃": 1589,
      "##℞": 1590,
      "##⌢": 1591,
      "##ϑ": 1592,
      "##ߝ": 1593,
      "##ɵ": 1594,
      "##⩿": 1595,
      "##ȥ": 1596,
      "##ⱪ": 1597,
      "##⅔": 1598,
      "##ȼ": 1599,
      "##レ": 1600,
      "##ⁿ": 1601,
      "##˴": 1602,
      "##𝒆": 1603,
      "##♪": 1604,
      "##☆": 1605,
      "##⨪": 1606,
      "##𝓣": 1607,
      "##█": 1608,
      "##٤": 1609,
      "##⩒": 1610,
      "##ɬ": 1611,
      "##ƈ": 1612,
      "##ᴍ": 1613,
      "##⌣": 1614,
      "##𝜅": 1615,
      "##ʷ": 1616,
      "##③": 1617,
      "##≤": 1618,
      "##ћ": 1619,
      "##∠": 1620,
      "##э": 1621,
      "##ѳ": 1622,
      "##ｐ": 1623,
      "##ℳ": 1624,
      "##◊": 1625,
      "##र": 1626,
      "##ण": 1627,
      "##𝐟": 1628,
      "##∎": 1629,
      "##⇐": 1630,
      "##ʎ": 1631,
      "##☺": 1632,
      "##⟵": 1633,
      "##ℜ": 1634,
      "##㎖": 1635,
      "##ˠ": 1636,
      "##แ": 1637,
      "##ล": 1638,
      "##ะ": 1639,
      "##ข": 1640,
      "##ภ": 1641,
      "##พ": 1642,
      "##ย": 1643,
      "##ร": 1644,
      "##ท": 1645,
      "##ศ": 1646,
      "##ʺ": 1647,
      "##ⅹ": 1648,
      "##⫽": 1649,
      "##①": 1650,
      "##∋": 1651,
      "##ۥ": 1652,
      "##ℂ": 1653,
      "##≻": 1654,
      "##ᴪ": 1655,
      "##ǝ": 1656,
      "##ᄁ": 1657,
      "##΂": 1658,
      "##ȣ": 1659,
      "##𝜋": 1660,
      "##ɓ": 1661,
      "##ɯ": 1662,
      "##ᴓ": 1663,
      "##ө": 1664,
      "##⑩": 1665,
      "##ℵ": 1666,
      "##₩": 1667,
      "##★": 1668,
      "##𝛼": 1669,
      "##ᇀ": 1670,
      "##④": 1671,
      "##ti": 1672,
      "th": 1673,
      "##er": 1674,
      "##on": 1675,
      "##en": 1676,
      "##es": 1677,
      "##ed": 1678,
      "##in": 1679,
      "the": 1680,
      "##al": 1681,
      "in": 1682,
      "an": 1683,
      "##or": 1684,
      "of": 1685,
      "##at": 1686,
      "##an": 1687,
      "##ro": 1688,
      "##tion": 1689,
      "and": 1690,
      "##as": 1691,
      "##it": 1692,
      "##ic": 1693,
      "##ar": 1694,
      "##is": 1695,
      "##ent": 1696,
      "##ec": 1697,
      "##re": 1698,
      "##el": 1699,
      "##ing": 1700,
      "to": 1701,
      "##ation": 1702,
      "##ul": 1703,
      "##et": 1704,
      "##ol": 1705,
      "##om": 1706,
      "##ac": 1707,
      "##ur": 1708,
      "##os": 1709,
      "##ith": 1710,
      "##us": 1711,
      "##ve": 1712,
      "##id": 1713,
      "##ati": 1714,
      "with": 1715,
      "##ly": 1716,
      "##le": 1717,
      "con": 1718,
      "st": 1719,
      "##th": 1720,
      "##ere": 1721,
      "##ter": 1722,
      "##ig": 1723,
      "pro": 1724,
      "for": 1725,
      "re": 1726,
      "##ts": 1727,
      "##uc": 1728,
      "##od": 1729,
      "##il": 1730,
      "##em": 1731,
      "as": 1732,
      "##if": 1733,
      "was": 1734,
      "##ated": 1735,
      "##un": 1736,
      "##ess": 1737,
      "##am": 1738,
      "##ce": 1739,
      "##im": 1740,
      "##tr": 1741,
      "##ow": 1742,
      "ex": 1743,
      "is": 1744,
      "res": 1745,
      "##um": 1746,
      "##oc": 1747,
      "were": 1748,
      "##op": 1749,
      "##ut": 1750,
      "##tic": 1751,
      "##ity": 1752,
      "##ir": 1753,
      "##ion": 1754,
      "on": 1755,
      "##ents": 1756,
      "ac": 1757,
      "com": 1758,
      "##ate": 1759,
      "that": 1760,
      "##ab": 1761,
      "##ot": 1762,
      "##og": 1763,
      "al": 1764,
      "be": 1765,
      "##ys": 1766,
      "ch": 1767,
      "##ud": 1768,
      "##ev": 1769,
      "##ag": 1770,
      "##ell": 1771,
      "by": 1772,
      "##ad": 1773,
      "##ain": 1774,
      "##ap": 1775,
      "##rom": 1776,
      "wh": 1777,
      "##ical": 1778,
      "##ect": 1779,
      "##ant": 1780,
      "or": 1781,
      "pr": 1782,
      "##ers": 1783,
      "##ib": 1784,
      "su": 1785,
      "##pl": 1786,
      "##ine": 1787,
      "##ment": 1788,
      "pati": 1789,
      "##ase": 1790,
      "##iv": 1791,
      "##ep": 1792,
      "im": 1793,
      "##tin": 1794,
      "tr": 1795,
      "##ff": 1796,
      "dis": 1797,
      "at": 1798,
      "##igh": 1799,
      "ad": 1800,
      "us": 1801,
      "we": 1802,
      "##tiv": 1803,
      "inc": 1804,
      "this": 1805,
      "##ph": 1806,
      "comp": 1807,
      "patients": 1808,
      "##ence": 1809,
      "are": 1810,
      "##qu": 1811,
      "sp": 1812,
      "en": 1813,
      "from": 1814,
      "##ure": 1815,
      "cell": 1816,
      "stud": 1817,
      "##tive": 1818,
      "##iz": 1819,
      "##ay": 1820,
      "##ign": 1821,
      "##ial": 1822,
      "sh": 1823,
      "un": 1824,
      "##ific": 1825,
      "ne": 1826,
      "ind": 1827,
      "##te": 1828,
      "met": 1829,
      "##ies": 1830,
      "##ch": 1831,
      "##ations": 1832,
      "per": 1833,
      "##fer": 1834,
      "##per": 1835,
      "##ress": 1836,
      "rec": 1837,
      "##ous": 1838,
      "##ort": 1839,
      "##ip": 1840,
      "##orm": 1841,
      "##ans": 1842,
      "ass": 1843,
      "##ens": 1844,
      "ph": 1845,
      "eff": 1846,
      "##ear": 1847,
      "##evel": 1848,
      "##ore": 1849,
      "resul": 1850,
      "##rou": 1851,
      "##ge": 1852,
      "##ons": 1853,
      "##oun": 1854,
      "cl": 1855,
      "##ia": 1856,
      "##ely": 1857,
      "gen": 1858,
      "##est": 1859,
      "ap": 1860,
      "##act": 1861,
      "##ting": 1862,
      "sign": 1863,
      "##bs": 1864,
      "##enti": 1865,
      "inf": 1866,
      "##ular": 1867,
      "##ary": 1868,
      "##ition": 1869,
      "##yp": 1870,
      "dif": 1871,
      "##oth": 1872,
      "##olog": 1873,
      "par": 1874,
      "bet": 1875,
      "##erm": 1876,
      "high": 1877,
      "pre": 1878,
      "inter": 1879,
      "##ese": 1880,
      "rel": 1881,
      "##ased": 1882,
      "can": 1883,
      "##cl": 1884,
      "cont": 1885,
      "tre": 1886,
      "##ver": 1887,
      "not": 1888,
      "pl": 1889,
      "results": 1890,
      "ha": 1891,
      "##ors": 1892,
      "co": 1893,
      "de": 1894,
      "##ding": 1895,
      "imp": 1896,
      "##yl": 1897,
      "these": 1898,
      "meth": 1899,
      "ev": 1900,
      "study": 1901,
      "##ym": 1902,
      "resp": 1903,
      "car": 1904,
      "exp": 1905,
      "##ich": 1906,
      "pos": 1907,
      "##roup": 1908,
      "##ist": 1909,
      "me": 1910,
      "##st": 1911,
      "##der": 1912,
      "differ": 1913,
      "str": 1914,
      "##enc": 1915,
      "trans": 1916,
      "##ance": 1917,
      "##ose": 1918,
      "incre": 1919,
      "##ative": 1920,
      "di": 1921,
      "group": 1922,
      "signific": 1923,
      "##ath": 1924,
      "am": 1925,
      "##een": 1926,
      "##duc": 1927,
      "anal": 1928,
      "##ection": 1929,
      "sur": 1930,
      "##ied": 1931,
      "significant": 1932,
      "cells": 1933,
      "reg": 1934,
      "mod": 1935,
      "##and": 1936,
      "##ast": 1937,
      "##ong": 1938,
      "##ual": 1939,
      "det": 1940,
      "af": 1941,
      "rep": 1942,
      "spec": 1943,
      "pres": 1944,
      "##iti": 1945,
      "cons": 1946,
      "activ": 1947,
      "all": 1948,
      "method": 1949,
      "which": 1950,
      "##ween": 1951,
      "##able": 1952,
      "have": 1953,
      "##age": 1954,
      "between": 1955,
      "sc": 1956,
      "inv": 1957,
      "show": 1958,
      "##vi": 1959,
      "##rol": 1960,
      "mic": 1961,
      "##all": 1962,
      "##ory": 1963,
      "##00": 1964,
      "##oci": 1965,
      "ab": 1966,
      "int": 1967,
      "##end": 1968,
      "##ide": 1969,
      "after": 1970,
      "ar": 1971,
      "##ression": 1972,
      "##oll": 1973,
      "##ound": 1974,
      "cor": 1975,
      "##ater": 1976,
      "treat": 1977,
      "##atin": 1978,
      "he": 1979,
      "##ros": 1980,
      "than": 1981,
      "no": 1982,
      "##ach": 1983,
      "##ved": 1984,
      "##usion": 1985,
      "##ug": 1986,
      "compar": 1987,
      "##ects": 1988,
      "tw": 1989,
      "##ally": 1990,
      "##ari": 1991,
      "##ected": 1992,
      "##tein": 1993,
      "##one": 1994,
      "se": 1995,
      "##alu": 1996,
      "##yst": 1997,
      "##ther": 1998,
      "level": 1999,
      "anti": 2000,
      "##ight": 2001,
      "##yn": 2002,
      "##ates": 2003,
      "##unc": 2004,
      "med": 2005,
      "app": 2006,
      "ag": 2007,
      "##ever": 2008,
      "##ases": 2009,
      "##ech": 2010,
      "##cr": 2011,
      "associ": 2012,
      "##ost": 2013,
      "##ive": 2014,
      "treatment": 2015,
      "##ak": 2016,
      "##ective": 2017,
      "##our": 2018,
      "using": 2019,
      "##form": 2020,
      "it": 2021,
      "##tim": 2022,
      "le": 2023,
      "##ility": 2024,
      "bl": 2025,
      "##ome": 2026,
      "but": 2027,
      "##ox": 2028,
      "has": 2029,
      "been": 2030,
      "protein": 2031,
      "##entr": 2032,
      "two": 2033,
      "##unction": 2034,
      "des": 2035,
      "dur": 2036,
      "##ted": 2037,
      "##na": 2038,
      "control": 2039,
      "analys": 2040,
      "##ulation": 2041,
      "el": 2042,
      "ob": 2043,
      "##ood": 2044,
      "##ized": 2045,
      "bi": 2046,
      "##ating": 2047,
      "##ard": 2048,
      "##evelop": 2049,
      "##ue": 2050,
      "more": 2051,
      "low": 2052,
      "dec": 2053,
      "develop": 2054,
      "hy": 2055,
      "may": 2056,
      "##mun": 2057,
      "##ang": 2058,
      "##anc": 2059,
      "both": 2060,
      "##osis": 2061,
      "##dition": 2062,
      "##so": 2063,
      "mon": 2064,
      "sub": 2065,
      "clin": 2066,
      "##ree": 2067,
      "ca": 2068,
      "year": 2069,
      "ser": 2070,
      "##action": 2071,
      "dise": 2072,
      "10": 2073,
      "dat": 2074,
      "fl": 2075,
      "their": 2076,
      "red": 2077,
      "##ass": 2078,
      "##yt": 2079,
      "##hib": 2080,
      "##cess": 2081,
      "also": 2082,
      "tim": 2083,
      "dep": 2084,
      "##gg": 2085,
      "##pt": 2086,
      "##ill": 2087,
      "##ob": 2088,
      "##acter": 2089,
      "##ri": 2090,
      "##ures": 2091,
      "syst": 2092,
      "used": 2093,
      "concl": 2094,
      "##ub": 2095,
      "##cer": 2096,
      "##uced": 2097,
      "during": 2098,
      "##ectiv": 2099,
      "there": 2100,
      "id": 2101,
      "##ined": 2102,
      "##ological": 2103,
      "##erap": 2104,
      "had": 2105,
      "##agn": 2106,
      "##iss": 2107,
      "function": 2108,
      "##ism": 2109,
      "fact": 2110,
      "meas": 2111,
      "dr": 2112,
      "##uld": 2113,
      "system": 2114,
      "respons": 2115,
      "##ogen": 2116,
      "man": 2117,
      "##ew": 2118,
      "vari": 2119,
      "gl": 2120,
      "clinical": 2121,
      "obs": 2122,
      "data": 2123,
      "em": 2124,
      "##br": 2125,
      "##out": 2126,
      "suc": 2127,
      "incl": 2128,
      "##gen": 2129,
      "##ond": 2130,
      "heal": 2131,
      "##ution": 2132,
      "##atic": 2133,
      "es": 2134,
      "how": 2135,
      "methods": 2136,
      "out": 2137,
      "associated": 2138,
      "##pp": 2139,
      "under": 2140,
      "sim": 2141,
      "##urr": 2142,
      "present": 2143,
      "form": 2144,
      "##plic": 2145,
      "##ack": 2146,
      "analysis": 2147,
      "sugg": 2148,
      "sam": 2149,
      "over": 2150,
      "acc": 2151,
      "##aph": 2152,
      "##etic": 2153,
      "##ium": 2154,
      "one": 2155,
      "model": 2156,
      "conclusion": 2157,
      "includ": 2158,
      "ris": 2159,
      "foll": 2160,
      "health": 2161,
      "typ": 2162,
      "##uct": 2163,
      "##ult": 2164,
      "increased": 2165,
      "produc": 2166,
      "use": 2167,
      "##inding": 2168,
      "activity": 2169,
      "compared": 2170,
      "significantly": 2171,
      "pol": 2172,
      "##ays": 2173,
      "disease": 2174,
      "non": 2175,
      "conc": 2176,
      "up": 2177,
      "syn": 2178,
      "##ained": 2179,
      "inhib": 2180,
      "expression": 2181,
      "levels": 2182,
      "ins": 2183,
      "obser": 2184,
      "##gr": 2185,
      "##ven": 2186,
      "other": 2187,
      "end": 2188,
      "found": 2189,
      "##ace": 2190,
      "##ole": 2191,
      "##ization": 2192,
      "follow": 2193,
      "time": 2194,
      "##ici": 2195,
      "qu": 2196,
      "##entif": 2197,
      "##ild": 2198,
      "oc": 2199,
      "##eth": 2200,
      "##ite": 2201,
      "##ential": 2202,
      "perform": 2203,
      "##itive": 2204,
      "immun": 2205,
      "20": 2206,
      "##ogr": 2207,
      "##und": 2208,
      "risk": 2209,
      "fr": 2210,
      "exper": 2211,
      "##tig": 2212,
      "##ane": 2213,
      "dem": 2214,
      "evalu": 2215,
      "gr": 2216,
      "determ": 2217,
      "cr": 2218,
      "##ants": 2219,
      "pot": 2220,
      "##ail": 2221,
      "different": 2222,
      "studies": 2223,
      "effect": 2224,
      "br": 2225,
      "hum": 2226,
      "identif": 2227,
      "effects": 2228,
      "showed": 2229,
      "##ments": 2230,
      "indic": 2231,
      "##ile": 2232,
      "its": 2233,
      "based": 2234,
      "exam": 2235,
      "##atory": 2236,
      "##ish": 2237,
      "appro": 2238,
      "##tal": 2239,
      "prov": 2240,
      "##row": 2241,
      "##estig": 2242,
      "therap": 2243,
      "investig": 2244,
      "char": 2245,
      "partic": 2246,
      "concentr": 2247,
      "##oid": 2248,
      "##als": 2249,
      "however": 2250,
      "tum": 2251,
      "sm": 2252,
      "path": 2253,
      "ma": 2254,
      "report": 2255,
      "min": 2256,
      "sel": 2257,
      "##mon": 2258,
      "##ery": 2259,
      "##ities": 2260,
      "most": 2261,
      "##ences": 2262,
      "##adi": 2263,
      "specific": 2264,
      "12": 2265,
      "infl": 2266,
      "##ectively": 2267,
      "diagn": 2268,
      "##onstr": 2269,
      "##ma": 2270,
      "assess": 2271,
      "##ple": 2272,
      "contr": 2273,
      "rem": 2274,
      "##esis": 2275,
      "##ency": 2276,
      "ep": 2277,
      "when": 2278,
      "##ination": 2279,
      "our": 2280,
      "years": 2281,
      "##av": 2282,
      "subs": 2283,
      "##idence": 2284,
      "##etr": 2285,
      "##tern": 2286,
      "def": 2287,
      "op": 2288,
      "mul": 2289,
      "supp": 2290,
      "##ormal": 2291,
      "acid": 2292,
      "age": 2293,
      "##ren": 2294,
      "into": 2295,
      "decre": 2296,
      "##ability": 2297,
      "only": 2298,
      "##ange": 2299,
      "well": 2300,
      "higher": 2301,
      "intr": 2302,
      "##ograph": 2303,
      "##tical": 2304,
      "##oph": 2305,
      "three": 2306,
      "19": 2307,
      "##erg": 2308,
      "##ork": 2309,
      "cancer": 2310,
      "##iqu": 2311,
      "##ently": 2312,
      "test": 2313,
      "##ions": 2314,
      "##ited": 2315,
      "peri": 2316,
      "##ology": 2317,
      "##ber": 2318,
      "##inal": 2319,
      "pred": 2320,
      "gener": 2321,
      "mal": 2322,
      "human": 2323,
      "##echan": 2324,
      "##ept": 2325,
      "induced": 2326,
      "##ature": 2327,
      "##arg": 2328,
      "##ement": 2329,
      "such": 2330,
      "##af": 2331,
      "mol": 2332,
      "new": 2333,
      "##ible": 2334,
      "impro": 2335,
      "observed": 2336,
      "character": 2337,
      "import": 2338,
      "num": 2339,
      "sec": 2340,
      "struct": 2341,
      "mechan": 2342,
      "##til": 2343,
      "##ord": 2344,
      "groups": 2345,
      "##ix": 2346,
      "##ik": 2347,
      "patient": 2348,
      "##ov": 2349,
      "##ugh": 2350,
      "##rel": 2351,
      "fir": 2352,
      "sens": 2353,
      "demonstr": 2354,
      "child": 2355,
      "##rop": 2356,
      "occ": 2357,
      "col": 2358,
      "##res": 2359,
      "ox": 2360,
      "chang": 2361,
      "loc": 2362,
      "##tid": 2363,
      "##ron": 2364,
      "##gh": 2365,
      "rate": 2366,
      "##aining": 2367,
      "blood": 2368,
      "kn": 2369,
      "##lex": 2370,
      "cases": 2371,
      "##ute": 2372,
      "post": 2373,
      "related": 2374,
      "##use": 2375,
      "surg": 2376,
      "process": 2377,
      "##cop": 2378,
      "##ark": 2379,
      "tiss": 2380,
      "micro": 2381,
      "##ok": 2382,
      "##ured": 2383,
      "term": 2384,
      "rat": 2385,
      "who": 2386,
      "##tit": 2387,
      "fe": 2388,
      "first": 2389,
      "##view": 2390,
      "##oma": 2391,
      "fur": 2392,
      "suggest": 2393,
      "valu": 2394,
      "aff": 2395,
      "##uction": 2396,
      "gene": 2397,
      "response": 2398,
      "mem": 2399,
      "disc": 2400,
      "addition": 2401,
      "##amm": 2402,
      "##echn": 2403,
      "##ural": 2404,
      "cal": 2405,
      "po": 2406,
      "##rough": 2407,
      "neu": 2408,
      "##ough": 2409,
      "##dro": 2410,
      "type": 2411,
      "##ten": 2412,
      "##osph": 2413,
      "inj": 2414,
      "those": 2415,
      "grow": 2416,
      "##och": 2417,
      "development": 2418,
      "##osed": 2419,
      "##own": 2420,
      "techn": 2421,
      "##round": 2422,
      "##ior": 2423,
      "among": 2424,
      "sol": 2425,
      "##ful": 2426,
      "respectively": 2427,
      "##its": 2428,
      "##ulated": 2429,
      "condition": 2430,
      "conf": 2431,
      "##ines": 2432,
      "mean": 2433,
      "care": 2434,
      "cd": 2435,
      "##vention": 2436,
      "##ental": 2437,
      "molec": 2438,
      "recept": 2439,
      "##ucle": 2440,
      "15": 2441,
      "##ital": 2442,
      "##les": 2443,
      "month": 2444,
      "drug": 2445,
      "factors": 2446,
      "del": 2447,
      "through": 2448,
      "mg": 2449,
      "##ains": 2450,
      "##arly": 2451,
      "pop": 2452,
      "total": 2453,
      "hyp": 2454,
      "ps": 2455,
      "ol": 2456,
      "##omen": 2457,
      "changes": 2458,
      "il": 2459,
      "##fore": 2460,
      "increase": 2461,
      "prim": 2462,
      "cyt": 2463,
      "bas": 2464,
      "##ize": 2465,
      "correl": 2466,
      "role": 2467,
      "invol": 2468,
      "00": 2469,
      "potential": 2470,
      "##di": 2471,
      "##ivid": 2472,
      "obj": 2473,
      "##endent": 2474,
      "prop": 2475,
      "long": 2476,
      "prob": 2477,
      "experim": 2478,
      "##ould": 2479,
      "phys": 2480,
      "##ational": 2481,
      "##asc": 2482,
      "##tained": 2483,
      "plas": 2484,
      "subj": 2485,
      "##xim": 2486,
      "fre": 2487,
      "normal": 2488,
      "gre": 2489,
      "##crib": 2490,
      "##urs": 2491,
      "finding": 2492,
      "my": 2493,
      "##earch": 2494,
      "medi": 2495,
      "mus": 2496,
      "important": 2497,
      "##ived": 2498,
      "stim": 2499,
      "back": 2500,
      "adm": 2501,
      "##eng": 2502,
      "lower": 2503,
      "main": 2504,
      "##vers": 2505,
      "predic": 2506,
      "##roph": 2507,
      "##omy": 2508,
      "could": 2509,
      "simil": 2510,
      "##led": 2511,
      "mechanism": 2512,
      "11": 2513,
      "##over": 2514,
      "##istic": 2515,
      "##ha": 2516,
      "ii": 2517,
      "##ex": 2518,
      "##ek": 2519,
      "within": 2520,
      "sym": 2521,
      "hist": 2522,
      "##ds": 2523,
      "##cin": 2524,
      "performed": 2525,
      "##gan": 2526,
      "infection": 2527,
      "so": 2528,
      "##air": 2529,
      "where": 2530,
      "##eter": 2531,
      "##ody": 2532,
      "sequ": 2533,
      "number": 2534,
      "##ene": 2535,
      "comb": 2536,
      "frequ": 2537,
      "##osp": 2538,
      "lik": 2539,
      "extr": 2540,
      "sever": 2541,
      "hyper": 2542,
      "therapy": 2543,
      "95": 2544,
      "review": 2545,
      "##ms": 2546,
      "conclusions": 2547,
      "prog": 2548,
      "##ption": 2549,
      "##ps": 2550,
      "outc": 2551,
      "less": 2552,
      "coll": 2553,
      "##ider": 2554,
      "while": 2555,
      "multi": 2556,
      "##ade": 2557,
      "flu": 2558,
      "##cle": 2559,
      "mm": 2560,
      "cap": 2561,
      "each": 2562,
      "##ether": 2563,
      "children": 2564,
      "requ": 2565,
      "antib": 2566,
      "hydro": 2567,
      "bec": 2568,
      "14": 2569,
      "treated": 2570,
      "reported": 2571,
      "##iver": 2572,
      "lim": 2573,
      "including": 2574,
      "##val": 2575,
      "similar": 2576,
      "##ages": 2577,
      "period": 2578,
      "poss": 2579,
      "vir": 2580,
      "growth": 2581,
      "tumor": 2582,
      "do": 2583,
      "fib": 2584,
      "some": 2585,
      "complex": 2586,
      "aim": 2587,
      "##orph": 2588,
      "ext": 2589,
      "##ores": 2590,
      "##ock": 2591,
      "women": 2592,
      "##vious": 2593,
      "##omes": 2594,
      "positive": 2595,
      "##arge": 2596,
      "radi": 2597,
      "pur": 2598,
      "describ": 2599,
      "pat": 2600,
      "reve": 2601,
      "##ne": 2602,
      "200": 2603,
      "13": 2604,
      "dna": 2605,
      "findings": 2606,
      "##ric": 2607,
      "##otic": 2608,
      "cy": 2609,
      "chem": 2610,
      "factor": 2611,
      "##ptom": 2612,
      "prom": 2613,
      "did": 2614,
      "without": 2615,
      "##ival": 2616,
      "ret": 2617,
      "30": 2618,
      "inhibit": 2619,
      "##pha": 2620,
      "week": 2621,
      "mo": 2622,
      "cardi": 2623,
      "##ividual": 2624,
      "mut": 2625,
      "work": 2626,
      "##ples": 2627,
      "prot": 2628,
      "##ground": 2629,
      "tem": 2630,
      "er": 2631,
      "case": 2632,
      "##zym": 2633,
      "four": 2634,
      "##iel": 2635,
      "abs": 2636,
      "##tivity": 2637,
      "mice": 2638,
      "they": 2639,
      "##ily": 2640,
      "individual": 2641,
      "##ues": 2642,
      "consider": 2643,
      "dir": 2644,
      "background": 2645,
      "25": 2646,
      "##istr": 2647,
      "##abol": 2648,
      "tissue": 2649,
      "calc": 2650,
      "18": 2651,
      "days": 2652,
      "approach": 2653,
      "pe": 2654,
      "av": 2655,
      "##ascular": 2656,
      "##ativ": 2657,
      "surf": 2658,
      "##ness": 2659,
      "months": 2660,
      "previous": 2661,
      "vit": 2662,
      "##ise": 2663,
      "need": 2664,
      "curr": 2665,
      "##ale": 2666,
      "##otyp": 2667,
      "isol": 2668,
      "##oper": 2669,
      "phosph": 2670,
      "identified": 2671,
      "common": 2672,
      "sing": 2673,
      "measure": 2674,
      "##ically": 2675,
      "reveal": 2676,
      "##ty": 2677,
      "hem": 2678,
      "maj": 2679,
      "##ake": 2680,
      "##iter": 2681,
      "sev": 2682,
      "major": 2683,
      "vis": 2684,
      "##oh": 2685,
      "##ross": 2686,
      "beha": 2687,
      "synth": 2688,
      "techniqu": 2689,
      "##equ": 2690,
      "organ": 2691,
      "nucle": 2692,
      "design": 2693,
      "caus": 2694,
      "##fl": 2695,
      "##are": 2696,
      "presence": 2697,
      "research": 2698,
      "##plet": 2699,
      "behavi": 2700,
      "analy": 2701,
      "second": 2702,
      "provid": 2703,
      "mark": 2704,
      "##ality": 2705,
      "differences": 2706,
      "##ocyt": 2707,
      "##med": 2708,
      "##ified": 2709,
      "further": 2710,
      "##uss": 2711,
      "surv": 2712,
      "mater": 2713,
      "vol": 2714,
      "symptom": 2715,
      "reduced": 2716,
      "##atal": 2717,
      "small": 2718,
      "16": 2719,
      "metabol": 2720,
      "24": 2721,
      "obtained": 2722,
      "##ced": 2723,
      "binding": 2724,
      "hosp": 2725,
      "class": 2726,
      "serum": 2727,
      "dose": 2728,
      "##ning": 2729,
      "influ": 2730,
      "##plications": 2731,
      "rats": 2732,
      "##atis": 2733,
      "##crip": 2734,
      "cult": 2735,
      "mat": 2736,
      "##par": 2737,
      "initi": 2738,
      "evidence": 2739,
      "##ymph": 2740,
      "due": 2741,
      "single": 2742,
      "early": 2743,
      "##ography": 2744,
      "##ice": 2745,
      "und": 2746,
      "sk": 2747,
      "day": 2748,
      "lip": 2749,
      "expl": 2750,
      "inform": 2751,
      "admin": 2752,
      "##acy": 2753,
      "about": 2754,
      "species": 2755,
      "##ety": 2756,
      "##lish": 2757,
      "##ung": 2758,
      "##ties": 2759,
      "enzym": 2760,
      "##ft": 2761,
      "decreased": 2762,
      "sl": 2763,
      "##ately": 2764,
      "conditions": 2765,
      "05": 2766,
      "receptor": 2767,
      "##itis": 2768,
      "bre": 2769,
      "primary": 2770,
      "alth": 2771,
      "##ension": 2772,
      "lymph": 2773,
      "50": 2774,
      "although": 2775,
      "os": 2776,
      "subjects": 2777,
      "##hip": 2778,
      "##esting": 2779,
      "##ogn": 2780,
      "qual": 2781,
      "diagnosis": 2782,
      "enh": 2783,
      "lab": 2784,
      "ele": 2785,
      "measured": 2786,
      "##ites": 2787,
      "concentration": 2788,
      "##old": 2789,
      "##ink": 2790,
      "ml": 2791,
      "rati": 2792,
      "particip": 2793,
      "##trib": 2794,
      "##int": 2795,
      "arter": 2796,
      "##ins": 2797,
      "ci": 2798,
      "##ressed": 2799,
      "proteins": 2800,
      "studied": 2801,
      "neg": 2802,
      "##roscop": 2803,
      "concentrations": 2804,
      "fem": 2805,
      "population": 2806,
      "##ectr": 2807,
      "##oles": 2808,
      "##las": 2809,
      "pers": 2810,
      "##ither": 2811,
      "##ests": 2812,
      "resist": 2813,
      "improve": 2814,
      "100": 2815,
      "alpha": 2816,
      "mr": 2817,
      "lif": 2818,
      "rece": 2819,
      "hep": 2820,
      "should": 2821,
      "beta": 2822,
      "##ication": 2823,
      "range": 2824,
      "##ateg": 2825,
      "brain": 2826,
      "pattern": 2827,
      "genes": 2828,
      "developed": 2829,
      "investigated": 2830,
      "##ials": 2831,
      "##ych": 2832,
      "objective": 2833,
      "samples": 2834,
      "##ength": 2835,
      "##gf": 2836,
      "plasma": 2837,
      "line": 2838,
      "press": 2839,
      "lead": 2840,
      "set": 2841,
      "phen": 2842,
      "membr": 2843,
      "if": 2844,
      "ec": 2845,
      "following": 2846,
      "##erv": 2847,
      "interaction": 2848,
      "revealed": 2849,
      "##vir": 2850,
      "##emia": 2851,
      "##erc": 2852,
      "##amic": 2853,
      "aut": 2854,
      "##aging": 2855,
      "reaction": 2856,
      "demonstrated": 2857,
      "##arget": 2858,
      "17": 2859,
      "der": 2860,
      "discuss": 2861,
      "analyz": 2862,
      "coun": 2863,
      "dependent": 2864,
      "target": 2865,
      "##plant": 2866,
      "anim": 2867,
      "surgery": 2868,
      "ang": 2869,
      "prol": 2870,
      "##ening": 2871,
      "##onal": 2872,
      "vs": 2873,
      "several": 2874,
      "chron": 2875,
      "surface": 2876,
      "##eptid": 2877,
      "##ulin": 2878,
      "est": 2879,
      "fam": 2880,
      "relations": 2881,
      "##hy": 2882,
      "inflamm": 2883,
      "##tan": 2884,
      "##por": 2885,
      "##osure": 2886,
      "oper": 2887,
      "##ind": 2888,
      "gluc": 2889,
      "##ield": 2890,
      "##aneous": 2891,
      "large": 2892,
      "proper": 2893,
      "molecular": 2894,
      "hospital": 2895,
      "stand": 2896,
      "##roduc": 2897,
      "elect": 2898,
      "kg": 2899,
      "adv": 2900,
      "##ick": 2901,
      "les": 2902,
      "here": 2903,
      "examined": 2904,
      "##asing": 2905,
      "complet": 2906,
      "##cent": 2907,
      "##oss": 2908,
      "survival": 2909,
      "appear": 2910,
      "weight": 2911,
      "prof": 2912,
      "functional": 2913,
      "chrom": 2914,
      "ul": 2915,
      "effective": 2916,
      "hear": 2917,
      "##ensity": 2918,
      "evaluated": 2919,
      "requir": 2920,
      "information": 2921,
      "liver": 2922,
      "unders": 2923,
      "proced": 2924,
      "values": 2925,
      "quan": 2926,
      "deg": 2927,
      "again": 2928,
      "##tered": 2929,
      "##az": 2930,
      "prac": 2931,
      "local": 2932,
      "201": 2933,
      "phase": 2934,
      "estim": 2935,
      "polym": 2936,
      "stress": 2937,
      "##cs": 2938,
      "electr": 2939,
      "##tis": 2940,
      "##ax": 2941,
      "determined": 2942,
      "region": 2943,
      "##tions": 2944,
      "val": 2945,
      "standard": 2946,
      "diff": 2947,
      "ir": 2948,
      "neur": 2949,
      "##ire": 2950,
      "bone": 2951,
      "param": 2952,
      "relationship": 2953,
      "nec": 2954,
      "whether": 2955,
      "rates": 2956,
      "01": 2957,
      "determine": 2958,
      "acute": 2959,
      "##ause": 2960,
      "chronic": 2961,
      "mass": 2962,
      "body": 2963,
      "free": 2964,
      "cle": 2965,
      "##arm": 2966,
      "pain": 2967,
      "sch": 2968,
      "sus": 2969,
      "diab": 2970,
      "enhanc": 2971,
      "water": 2972,
      "occurr": 2973,
      "either": 2974,
      "equ": 2975,
      "before": 2976,
      "pul": 2977,
      "life": 2978,
      "##ving": 2979,
      "intervention": 2980,
      "bacter": 2981,
      "will": 2982,
      "001": 2983,
      "characteristic": 2984,
      "pressure": 2985,
      "conduc": 2986,
      "##onic": 2987,
      "gu": 2988,
      "##omic": 2989,
      "included": 2990,
      "greater": 2991,
      "ur": 2992,
      "quality": 2993,
      "##ian": 2994,
      "same": 2995,
      "various": 2996,
      "##yr": 2997,
      "##ivers": 2998,
      "##icient": 2999,
      "reduction": 3000,
      "pathw": 3001,
      "activation": 3002,
      "structure": 3003,
      "##uth": 3004,
      "provide": 3005,
      "injur": 3006,
      "dim": 3007,
      "##sp": 3008,
      "thus": 3009,
      "##viron": 3010,
      "support": 3011,
      "against": 3012,
      "many": 3013,
      "##plication": 3014,
      "##ator": 3015,
      "##ulations": 3016,
      "manag": 3017,
      "hel": 3018,
      "ro": 3019,
      "ratio": 3020,
      "##ocytes": 3021,
      "##orb": 3022,
      "contrib": 3023,
      "ren": 3024,
      "shown": 3025,
      "##lement": 3026,
      "cir": 3027,
      "multiple": 3028,
      "vitro": 3029,
      "nov": 3030,
      "##ification": 3031,
      "##iven": 3032,
      "signal": 3033,
      "##tain": 3034,
      "exposure": 3035,
      "##amin": 3036,
      "symptoms": 3037,
      "known": 3038,
      "gly": 3039,
      "current": 3040,
      "##atively": 3041,
      "direct": 3042,
      "##operative": 3043,
      "sep": 3044,
      "medical": 3045,
      "dom": 3046,
      "##ules": 3047,
      "purp": 3048,
      "psych": 3049,
      "prec": 3050,
      "exc": 3051,
      "nan": 3052,
      "whereas": 3053,
      "vi": 3054,
      "negative": 3055,
      "genetic": 3056,
      "production": 3057,
      "because": 3058,
      "distrib": 3059,
      "carb": 3060,
      "##andom": 3061,
      "##eters": 3062,
      "##ission": 3063,
      "ach": 3064,
      "fail": 3065,
      "flow": 3066,
      "formation": 3067,
      "21": 3068,
      "fac": 3069,
      "##eu": 3070,
      "sal": 3071,
      "environ": 3072,
      "##rome": 3073,
      "detected": 3074,
      "##amine": 3075,
      "adj": 3076,
      "random": 3077,
      "compound": 3078,
      "##ostic": 3079,
      "##ellular": 3080,
      "rele": 3081,
      "40": 3082,
      "strong": 3083,
      "##gram": 3084,
      "##ensive": 3085,
      "##tric": 3086,
      "##ateral": 3087,
      "##uted": 3088,
      "recom": 3089,
      "##ists": 3090,
      "##ometr": 3091,
      "possible": 3092,
      "pub": 3093,
      "transcrip": 3094,
      "mort": 3095,
      "##itivity": 3096,
      "##ude": 3097,
      "association": 3098,
      "loss": 3099,
      "part": 3100,
      "nm": 3101,
      "##up": 3102,
      "##emic": 3103,
      "pap": 3104,
      "any": 3105,
      "##cept": 3106,
      "reduc": 3107,
      "compon": 3108,
      "##ae": 3109,
      "##ct": 3110,
      "ms": 3111,
      "##icity": 3112,
      "change": 3113,
      "repres": 3114,
      "##ocy": 3115,
      "##ynamic": 3116,
      "##nal": 3117,
      "controls": 3118,
      "membrane": 3119,
      "success": 3120,
      "order": 3121,
      "##eration": 3122,
      "confir": 3123,
      "sex": 3124,
      "involved": 3125,
      "muc": 3126,
      "weeks": 3127,
      "cent": 3128,
      "##otherap": 3129,
      "six": 3130,
      "performance": 3131,
      "muscle": 3132,
      "responses": 3133,
      "avail": 3134,
      "general": 3135,
      "size": 3136,
      "##atus": 3137,
      "mechanisms": 3138,
      "##tif": 3139,
      "difference": 3140,
      "oxid": 3141,
      "##gn": 3142,
      "commun": 3143,
      "mortality": 3144,
      "particular": 3145,
      "lo": 3146,
      "virus": 3147,
      "##ablish": 3148,
      "temper": 3149,
      "##ient": 3150,
      "properties": 3151,
      "tox": 3152,
      "hypoth": 3153,
      "indep": 3154,
      "five": 3155,
      "establish": 3156,
      "strateg": 3157,
      "assessed": 3158,
      "cycl": 3159,
      "models": 3160,
      "experi": 3161,
      "lung": 3162,
      "statis": 3163,
      "consist": 3164,
      "##ann": 3165,
      "resid": 3166,
      "##uk": 3167,
      "synd": 3168,
      "differenti": 3169,
      "##elial": 3170,
      "##istration": 3171,
      "state": 3172,
      "increasing": 3173,
      "overall": 3174,
      "##atures": 3175,
      "behavior": 3176,
      "##ision": 3177,
      "carcin": 3178,
      "purpose": 3179,
      "identify": 3180,
      "men": 3181,
      "000": 3182,
      "##ochem": 3183,
      "22": 3184,
      "sin": 3185,
      "old": 3186,
      "60": 3187,
      "##ward": 3188,
      "novel": 3189,
      "management": 3190,
      "##olution": 3191,
      "contin": 3192,
      "cm": 3193,
      "regul": 3194,
      "##aw": 3195,
      "heart": 3196,
      "##aps": 3197,
      "##ised": 3198,
      "super": 3199,
      "diet": 3200,
      "poly": 3201,
      "presented": 3202,
      "being": 3203,
      "analyzed": 3204,
      "proble": 3205,
      "amin": 3206,
      "##inant": 3207,
      "scre": 3208,
      "rap": 3209,
      "mac": 3210,
      "##ologic": 3211,
      "##eral": 3212,
      "neuro": 3213,
      "magn": 3214,
      "ct": 3215,
      "surgical": 3216,
      "link": 3217,
      "##estion": 3218,
      "contrast": 3219,
      "##eutic": 3220,
      "##app": 3221,
      "area": 3222,
      "like": 3223,
      "self": 3224,
      "imaging": 3225,
      "##opath": 3226,
      "death": 3227,
      "phot": 3228,
      "foc": 3229,
      "##ording": 3230,
      "intra": 3231,
      "frequency": 3232,
      "viv": 3233,
      "environment": 3234,
      "ov": 3235,
      "##acc": 3236,
      "eth": 3237,
      "##iciency": 3238,
      "##iving": 3239,
      "evaluate": 3240,
      "volum": 3241,
      "allow": 3242,
      "##reg": 3243,
      "##itor": 3244,
      "active": 3245,
      "dys": 3246,
      "outcomes": 3247,
      "##ie": 3248,
      "circ": 3249,
      "preval": 3250,
      "##dr": 3251,
      "##active": 3252,
      "result": 3253,
      "recent": 3254,
      "therefore": 3255,
      "##otherapy": 3256,
      "parameters": 3257,
      "severe": 3258,
      "outcome": 3259,
      "##eric": 3260,
      "centr": 3261,
      "peptid": 3262,
      "stage": 3263,
      "value": 3264,
      "vivo": 3265,
      "very": 3266,
      "isolated": 3267,
      "##elet": 3268,
      "add": 3269,
      "##ographic": 3270,
      "tra": 3271,
      "distribution": 3272,
      "##ergy": 3273,
      "short": 3274,
      "indicate": 3275,
      "technique": 3276,
      "decrease": 3277,
      "##ust": 3278,
      "mit": 3279,
      "enzyme": 3280,
      "##oses": 3281,
      "resistance": 3282,
      "##odies": 3283,
      "##etes": 3284,
      "enc": 3285,
      "##verage": 3286,
      "##lor": 3287,
      "detection": 3288,
      "participants": 3289,
      "morph": 3290,
      "nit": 3291,
      "index": 3292,
      "sw": 3293,
      "injury": 3294,
      "experimental": 3295,
      "renal": 3296,
      "optim": 3297,
      "##tinal": 3298,
      "##orts": 3299,
      "systems": 3300,
      "male": 3301,
      "hom": 3302,
      "induc": 3303,
      "23": 3304,
      "administration": 3305,
      "block": 3306,
      "site": 3307,
      "cross": 3308,
      "previously": 3309,
      "##ides": 3310,
      "inhibition": 3311,
      "stimul": 3312,
      "accur": 3313,
      "sensitivity": 3314,
      "vers": 3315,
      "diseases": 3316,
      "##icular": 3317,
      "ve": 3318,
      "##ogenesis": 3319,
      "dev": 3320,
      "characteristics": 3321,
      "##ended": 3322,
      "healthy": 3323,
      "##osition": 3324,
      "##ably": 3325,
      "left": 3326,
      "tested": 3327,
      "syndrome": 3328,
      "##tex": 3329,
      "##amp": 3330,
      "described": 3331,
      "prepar": 3332,
      "exhib": 3333,
      "gas": 3334,
      "assay": 3335,
      "therapeutic": 3336,
      "pregn": 3337,
      "rapid": 3338,
      "##ocial": 3339,
      "bene": 3340,
      "##ule": 3341,
      "att": 3342,
      "highly": 3343,
      "##asis": 3344,
      "considered": 3345,
      "animals": 3346,
      "##rh": 3347,
      "##tegr": 3348,
      "glucose": 3349,
      "##ancy": 3350,
      "##iat": 3351,
      "##ull": 3352,
      "##oplas": 3353,
      "artic": 3354,
      "fat": 3355,
      "mediated": 3356,
      "investigate": 3357,
      "maxim": 3358,
      "rh": 3359,
      "benef": 3360,
      "fil": 3361,
      "correlation": 3362,
      "incidence": 3363,
      "##inc": 3364,
      "followed": 3365,
      "atten": 3366,
      "available": 3367,
      "containing": 3368,
      "199": 3369,
      "##ours": 3370,
      "##eding": 3371,
      "family": 3372,
      "##iological": 3373,
      "##ns": 3374,
      "lesions": 3375,
      "cere": 3376,
      "sequence": 3377,
      "then": 3378,
      "##tically": 3379,
      "##de": 3380,
      "status": 3381,
      "##ode": 3382,
      "saf": 3383,
      "##ylation": 3384,
      "tub": 3385,
      "##ances": 3386,
      "better": 3387,
      "##ices": 3388,
      "##ogenic": 3389,
      "types": 3390,
      "kin": 3391,
      "sample": 3392,
      "da": 3393,
      "##ids": 3394,
      "##ouse": 3395,
      "##ters": 3396,
      "improved": 3397,
      "##ially": 3398,
      "##of": 3399,
      "prolif": 3400,
      "##red": 3401,
      "hiv": 3402,
      "relative": 3403,
      "##roscopy": 3404,
      "##inary": 3405,
      "caused": 3406,
      "##olic": 3407,
      "##opt": 3408,
      "impact": 3409,
      "28": 3410,
      "##ops": 3411,
      "##ount": 3412,
      "derived": 3413,
      "##ner": 3414,
      "individuals": 3415,
      "##ocard": 3416,
      "energy": 3417,
      "breast": 3418,
      "##ulf": 3419,
      "##ually": 3420,
      "##ands": 3421,
      "surve": 3422,
      "nor": 3423,
      "required": 3424,
      "##itation": 3425,
      "her": 3426,
      "effic": 3427,
      "##ces": 3428,
      "via": 3429,
      "inflammatory": 3430,
      "##otype": 3431,
      "##verse": 3432,
      "insulin": 3433,
      "cause": 3434,
      "pharm": 3435,
      "te": 3436,
      "release": 3437,
      "solution": 3438,
      "##els": 3439,
      "integr": 3440,
      "temperature": 3441,
      "##iev": 3442,
      "cardiac": 3443,
      "field": 3444,
      "##plied": 3445,
      "hypert": 3446,
      "##ygen": 3447,
      "pc": 3448,
      "##ey": 3449,
      "##acellular": 3450,
      "adh": 3451,
      "secre": 3452,
      "percent": 3453,
      "net": 3454,
      "amino": 3455,
      "record": 3456,
      "##terior": 3457,
      "bel": 3458,
      "ultr": 3459,
      "35": 3460,
      "sites": 3461,
      "ability": 3462,
      "dist": 3463,
      "poor": 3464,
      "spect": 3465,
      "mrna": 3466,
      "##omp": 3467,
      "expressed": 3468,
      "influence": 3469,
      "approxim": 3470,
      "combination": 3471,
      "assessment": 3472,
      "produced": 3473,
      "analyses": 3474,
      "conducted": 3475,
      "physical": 3476,
      "prevalence": 3477,
      "light": 3478,
      "##arc": 3479,
      "##eline": 3480,
      "program": 3481,
      "##therm": 3482,
      "##ves": 3483,
      "received": 3484,
      "comparis": 3485,
      "indicated": 3486,
      "practi": 3487,
      "##itu": 3488,
      "useful": 3489,
      "length": 3490,
      "liter": 3491,
      "know": 3492,
      "focus": 3493,
      "volume": 3494,
      "##roc": 3495,
      "##line": 3496,
      "##oy": 3497,
      "complications": 3498,
      "##ectomy": 3499,
      "them": 3500,
      "given": 3501,
      "elev": 3502,
      "content": 3503,
      "refer": 3504,
      "##tial": 3505,
      "skin": 3506,
      "diabetes": 3507,
      "##pr": 3508,
      "tak": 3509,
      "##tine": 3510,
      "##monary": 3511,
      "##ressive": 3512,
      "##ling": 3513,
      "##pec": 3514,
      "monitor": 3515,
      "abn": 3516,
      "evaluation": 3517,
      "sour": 3518,
      "metast": 3519,
      "visual": 3520,
      "##ortion": 3521,
      "##romb": 3522,
      "##ibility": 3523,
      "drugs": 3524,
      "26": 3525,
      "ver": 3526,
      "density": 3527,
      "larg": 3528,
      "features": 3529,
      "##cence": 3530,
      "adult": 3531,
      "recover": 3532,
      "average": 3533,
      "independent": 3534,
      "##ols": 3535,
      "likely": 3536,
      "even": 3537,
      "correlated": 3538,
      "heter": 3539,
      "efficacy": 3540,
      "scale": 3541,
      "ill": 3542,
      "valid": 3543,
      "according": 3544,
      "hc": 3545,
      "immune": 3546,
      "##ysis": 3547,
      "synthesis": 3548,
      "tumors": 3549,
      "cat": 3550,
      "continu": 3551,
      "quantit": 3552,
      "lig": 3553,
      "dam": 3554,
      "impair": 3555,
      "mar": 3556,
      "separ": 3557,
      "compounds": 3558,
      "diagnostic": 3559,
      "acet": 3560,
      "hr": 3561,
      "##abil": 3562,
      "##enz": 3563,
      "injection": 3564,
      "abnormal": 3565,
      "applied": 3566,
      "##ones": 3567,
      "play": 3568,
      "question": 3569,
      "characterized": 3570,
      "coh": 3571,
      "often": 3572,
      "apopt": 3573,
      "orig": 3574,
      "##uble": 3575,
      "recogn": 3576,
      "##izing": 3577,
      "thir": 3578,
      "ventr": 3579,
      "good": 3580,
      "demonstrate": 3581,
      "initial": 3582,
      "cop": 3583,
      "off": 3584,
      "##vent": 3585,
      "oral": 3586,
      "##resp": 3587,
      "##order": 3588,
      "##go": 3589,
      "ic": 3590,
      "cre": 3591,
      "introduc": 3592,
      "chall": 3593,
      "vascular": 3594,
      "##cep": 3595,
      "##mit": 3596,
      "social": 3597,
      "recurr": 3598,
      "activities": 3599,
      "medic": 3600,
      "oste": 3601,
      "central": 3602,
      "transcription": 3603,
      "angi": 3604,
      "transfer": 3605,
      "fraction": 3606,
      "##orders": 3607,
      "##ators": 3608,
      "##tanding": 3609,
      "##oung": 3610,
      "might": 3611,
      "young": 3612,
      "##vement": 3613,
      "spectr": 3614,
      "27": 3615,
      "##medi": 3616,
      "least": 3617,
      "paper": 3618,
      "mix": 3619,
      "45": 3620,
      "made": 3621,
      "##mic": 3622,
      "##orption": 3623,
      "failure": 3624,
      "tissues": 3625,
      "glyc": 3626,
      "pa": 3627,
      "##otox": 3628,
      "predict": 3629,
      "pd": 3630,
      "util": 3631,
      "##ored": 3632,
      "measures": 3633,
      "##tle": 3634,
      "cellular": 3635,
      "##ising": 3636,
      "carr": 3637,
      "##ecting": 3638,
      "underw": 3639,
      "enhanced": 3640,
      "represent": 3641,
      "cs": 3642,
      "##enced": 3643,
      "32": 3644,
      "measurements": 3645,
      "receptors": 3646,
      "##rees": 3647,
      "disorders": 3648,
      "score": 3649,
      "transplant": 3650,
      "biological": 3651,
      "nat": 3652,
      "female": 3653,
      "aden": 3654,
      "areas": 3655,
      "##thermore": 3656,
      "furthermore": 3657,
      "experiments": 3658,
      "cri": 3659,
      "procedure": 3660,
      "##ledge": 3661,
      "##yro": 3662,
      "food": 3663,
      "##ask": 3664,
      "##ta": 3665,
      "stimulation": 3666,
      "asp": 3667,
      "understanding": 3668,
      "cur": 3669,
      "epid": 3670,
      "techniques": 3671,
      "subsequ": 3672,
      "literature": 3673,
      "times": 3674,
      "regulation": 3675,
      "successful": 3676,
      "knowledge": 3677,
      "##ales": 3678,
      "##art": 3679,
      "90": 3680,
      "discussed": 3681,
      "emerg": 3682,
      "moder": 3683,
      "strains": 3684,
      "rna": 3685,
      "diss": 3686,
      "adul": 3687,
      "80": 3688,
      "minim": 3689,
      "regression": 3690,
      "31": 3691,
      "observ": 3692,
      "##ables": 3693,
      "##work": 3694,
      "combined": 3695,
      "regions": 3696,
      "degrees": 3697,
      "36": 3698,
      "processes": 3699,
      "##rob": 3700,
      "position": 3701,
      "repe": 3702,
      "dynamic": 3703,
      "##tib": 3704,
      "##omal": 3705,
      "approximately": 3706,
      "##lic": 3707,
      "tests": 3708,
      "since": 3709,
      "fin": 3710,
      "ed": 3711,
      "oxygen": 3712,
      "few": 3713,
      "underwent": 3714,
      "baseline": 3715,
      "arr": 3716,
      "patterns": 3717,
      "29": 3718,
      "pathway": 3719,
      "##ocyte": 3720,
      "median": 3721,
      "would": 3722,
      "culture": 3723,
      "##uture": 3724,
      "##bers": 3725,
      "##igr": 3726,
      "events": 3727,
      "##rogen": 3728,
      "step": 3729,
      "affected": 3730,
      "##ustr": 3731,
      "bm": 3732,
      "proposed": 3733,
      "##olar": 3734,
      "48": 3735,
      "artery": 3736,
      "air": 3737,
      "prior": 3738,
      "thromb": 3739,
      "nurs": 3740,
      "progn": 3741,
      "smok": 3742,
      "occurred": 3743,
      "pulmonary": 3744,
      "resulted": 3745,
      "ey": 3746,
      "right": 3747,
      "collected": 3748,
      "confirmed": 3749,
      "limited": 3750,
      "antibodies": 3751,
      "fluores": 3752,
      "##ont": 3753,
      "biom": 3754,
      "coron": 3755,
      "ess": 3756,
      "##iotic": 3757,
      "suggested": 3758,
      "##rosp": 3759,
      "educ": 3760,
      "##opro": 3761,
      "antibody": 3762,
      "interactions": 3763,
      "pcr": 3764,
      "##omas": 3765,
      "##eness": 3766,
      "##erve": 3767,
      "antigen": 3768,
      "neurons": 3769,
      "cogn": 3770,
      "##da": 3771,
      "##ier": 3772,
      "##ochemical": 3773,
      "achiev": 3774,
      "epith": 3775,
      "##ytic": 3776,
      "section": 3777,
      "ax": 3778,
      "##ower": 3779,
      "sensitive": 3780,
      "methyl": 3781,
      "electro": 3782,
      "mid": 3783,
      "key": 3784,
      "33": 3785,
      "criter": 3786,
      "constr": 3787,
      "##lying": 3788,
      "hydrox": 3789,
      "agg": 3790,
      "##iatric": 3791,
      "##otor": 3792,
      "horm": 3793,
      "##till": 3794,
      "suggests": 3795,
      "##ru": 3796,
      "complete": 3797,
      "pharmac": 3798,
      "labor": 3799,
      "network": 3800,
      "comparison": 3801,
      "practice": 3802,
      "versus": 3803,
      "##ler": 3804,
      "lack": 3805,
      "auth": 3806,
      "gam": 3807,
      "refl": 3808,
      "materials": 3809,
      "serv": 3810,
      "inhibited": 3811,
      "carcinoma": 3812,
      "##utr": 3813,
      "suggesting": 3814,
      "increases": 3815,
      "alter": 3816,
      "recomm": 3817,
      "structures": 3818,
      "endoth": 3819,
      "application": 3820,
      "established": 3821,
      "setting": 3822,
      "trials": 3823,
      "70": 3824,
      "seen": 3825,
      "guid": 3826,
      "additional": 3827,
      "exerc": 3828,
      "chemical": 3829,
      "##ke": 3830,
      "place": 3831,
      "hal": 3832,
      "vacc": 3833,
      "history": 3834,
      "down": 3835,
      "invas": 3836,
      "isch": 3837,
      "catal": 3838,
      "altern": 3839,
      "periph": 3840,
      "cer": 3841,
      "##ovascular": 3842,
      "controlled": 3843,
      "##urn": 3844,
      "37": 3845,
      "malign": 3846,
      "screening": 3847,
      "coronary": 3848,
      "relev": 3849,
      "across": 3850,
      "alc": 3851,
      "iii": 3852,
      "provides": 3853,
      "chain": 3854,
      "lay": 3855,
      "accum": 3856,
      "##10": 3857,
      "examination": 3858,
      "strain": 3859,
      "corr": 3860,
      "transp": 3861,
      "##ave": 3862,
      "mir": 3863,
      "duration": 3864,
      "adults": 3865,
      "scores": 3866,
      "displ": 3867,
      "electron": 3868,
      "##ious": 3869,
      "disorder": 3870,
      "bir": 3871,
      "action": 3872,
      "prost": 3873,
      "promo": 3874,
      "##ploy": 3875,
      "depend": 3876,
      "mouse": 3877,
      "espec": 3878,
      "plat": 3879,
      "iv": 3880,
      "substr": 3881,
      "especially": 3882,
      "hand": 3883,
      "secondary": 3884,
      "##onding": 3885,
      "future": 3886,
      "##ining": 3887,
      "##istered": 3888,
      "##inetic": 3889,
      "mel": 3890,
      "training": 3891,
      "capac": 3892,
      "##ogene": 3893,
      "seg": 3894,
      "75": 3895,
      "##acts": 3896,
      "corresp": 3897,
      "selected": 3898,
      "eight": 3899,
      "proliferation": 3900,
      "consum": 3901,
      "##rosis": 3902,
      "##terol": 3903,
      "sil": 3904,
      "defined": 3905,
      "##nf": 3906,
      "rad": 3907,
      "##oscop": 3908,
      "##oxid": 3909,
      "##ethyl": 3910,
      "##fusion": 3911,
      "##emb": 3912,
      "##last": 3913,
      "agents": 3914,
      "sum": 3915,
      "##bral": 3916,
      "sle": 3917,
      "##ii": 3918,
      "alcoh": 3919,
      "##iratory": 3920,
      "##pa": 3921,
      "inhibitor": 3922,
      "lat": 3923,
      "colon": 3924,
      "peak": 3925,
      "##grad": 3926,
      "detect": 3927,
      "polymer": 3928,
      "plac": 3929,
      "34": 3930,
      "##utes": 3931,
      "bar": 3932,
      "##ondr": 3933,
      "et": 3934,
      "02": 3935,
      "kid": 3936,
      "recently": 3937,
      "help": 3938,
      "toward": 3939,
      "article": 3940,
      "still": 3941,
      "##set": 3942,
      "ultras": 3943,
      "##aff": 3944,
      "##ture": 3945,
      "desp": 3946,
      "##me": 3947,
      "basis": 3948,
      "kidne": 3949,
      "side": 3950,
      "##ld": 3951,
      "ref": 3952,
      "go": 3953,
      "ant": 3954,
      "despite": 3955,
      "##orbid": 3956,
      "cours": 3957,
      "components": 3958,
      "##ying": 3959,
      "damage": 3960,
      "glut": 3961,
      "lit": 3962,
      "head": 3963,
      "##estinal": 3964,
      "lipid": 3965,
      "leuk": 3966,
      "molecules": 3967,
      "chlor": 3968,
      "describe": 3969,
      "structural": 3970,
      "##agon": 3971,
      "suff": 3972,
      "postoperative": 3973,
      "clear": 3974,
      "bil": 3975,
      "phosphor": 3976,
      "critical": 3977,
      "improvement": 3978,
      "apoptosis": 3979,
      "##bry": 3980,
      "prosp": 3981,
      "mes": 3982,
      "fold": 3983,
      "hip": 3984,
      "peripheral": 3985,
      "diffic": 3986,
      "##eph": 3987,
      "cost": 3988,
      "##ibr": 3989,
      "graf": 3990,
      "##tre": 3991,
      "adap": 3992,
      "criteria": 3993,
      "distin": 3994,
      "##ets": 3995,
      "metabolic": 3996,
      "##agen": 3997,
      "fer": 3998,
      "dop": 3999,
      "kinase": 4000,
      "ion": 4001,
      "necess": 4002,
      "chann": 4003,
      "##ancre": 4004,
      "real": 4005,
      "##isting": 4006,
      "##yroid": 4007,
      "signaling": 4008,
      "exercise": 4009,
      "##ochondr": 4010,
      "chromos": 4011,
      "populations": 4012,
      "calcium": 4013,
      "don": 4014,
      "peptide": 4015,
      "bio": 4016,
      "infected": 4017,
      "provided": 4018,
      "daily": 4019,
      "##iting": 4020,
      "depression": 4021,
      "doc": 4022,
      "alone": 4023,
      "nerve": 4024,
      "differentiation": 4025,
      "##ectives": 4026,
      "aged": 4027,
      "task": 4028,
      "strategies": 4029,
      "##odes": 4030,
      "load": 4031,
      "prevent": 4032,
      "trial": 4033,
      "sem": 4034,
      "##occ": 4035,
      "great": 4036,
      "affect": 4037,
      "ra": 4038,
      "series": 4039,
      "functions": 4040,
      "##ergic": 4041,
      "does": 4042,
      "therm": 4043,
      "rang": 4044,
      "na": 4045,
      "od": 4046,
      "##esth": 4047,
      "interval": 4048,
      "ampl": 4049,
      "fet": 4050,
      "activated": 4051,
      "consistent": 4052,
      "facil": 4053,
      "point": 4054,
      "situ": 4055,
      "##entially": 4056,
      "embry": 4057,
      "concer": 4058,
      "sn": 4059,
      "##anol": 4060,
      "essential": 4061,
      "perce": 4062,
      "##pre": 4063,
      "testing": 4064,
      "42": 4065,
      "eng": 4066,
      "##iversity": 4067,
      "retrosp": 4068,
      "cou": 4069,
      "frag": 4070,
      "sod": 4071,
      "##enting": 4072,
      "elevated": 4073,
      "moreover": 4074,
      "##ints": 4075,
      "##50": 4076,
      "acids": 4077,
      "38": 4078,
      "employ": 4079,
      "resulting": 4080,
      "cognitive": 4081,
      "importance": 4082,
      "reduce": 4083,
      "plant": 4084,
      "community": 4085,
      "hours": 4086,
      "##ems": 4087,
      "top": 4088,
      "pancre": 4089,
      "prote": 4090,
      "absence": 4091,
      "onset": 4092,
      "mitochondr": 4093,
      "cryst": 4094,
      "glob": 4095,
      "marked": 4096,
      "pregnancy": 4097,
      "simple": 4098,
      "##ove": 4099,
      "myocard": 4100,
      "medium": 4101,
      "rare": 4102,
      "##ather": 4103,
      "products": 4104,
      "linear": 4105,
      "implant": 4106,
      "convention": 4107,
      "degree": 4108,
      "##otid": 4109,
      "##umin": 4110,
      "survey": 4111,
      "##ptake": 4112,
      "questionna": 4113,
      "remains": 4114,
      "achieved": 4115,
      "log": 4116,
      "##omer": 4117,
      "transport": 4118,
      "las": 4119,
      "lines": 4120,
      "access": 4121,
      "reli": 4122,
      "sci": 4123,
      "particularly": 4124,
      "migr": 4125,
      "seven": 4126,
      "infections": 4127,
      "##bo": 4128,
      "material": 4129,
      "##oint": 4130,
      "microm": 4131,
      "natural": 4132,
      "##ulate": 4133,
      "capacity": 4134,
      "transform": 4135,
      "sulf": 4136,
      "##oids": 4137,
      "toler": 4138,
      "lear": 4139,
      "##function": 4140,
      "metabolism": 4141,
      "##ca": 4142,
      "pig": 4143,
      "cytok": 4144,
      "##trans": 4145,
      "##arding": 4146,
      "##ument": 4147,
      "diagnosed": 4148,
      "##ophil": 4149,
      "##ople": 4150,
      "##olesterol": 4151,
      "fract": 4152,
      "power": 4153,
      "##ef": 4154,
      "##uter": 4155,
      "extract": 4156,
      "procedures": 4157,
      "older": 4158,
      "problems": 4159,
      "##etry": 4160,
      "##ayed": 4161,
      "##pri": 4162,
      "states": 4163,
      "open": 4164,
      "markers": 4165,
      "##ivery": 4166,
      "transl": 4167,
      "transm": 4168,
      "require": 4169,
      "##ogl": 4170,
      "fluid": 4171,
      "dig": 4172,
      "doses": 4173,
      "appropri": 4174,
      "##dom": 4175,
      "quantitative": 4176,
      "##arb": 4177,
      "delivery": 4178,
      "ear": 4179,
      "bacterial": 4180,
      "##oster": 4181,
      "##12": 4182,
      "exposed": 4183,
      "examine": 4184,
      "label": 4185,
      "underst": 4186,
      "nutr": 4187,
      "upon": 4188,
      "##arr": 4189,
      "recovery": 4190,
      "wor": 4191,
      "##ics": 4192,
      "conventional": 4193,
      "highest": 4194,
      "magnetic": 4195,
      "uptake": 4196,
      "carbon": 4197,
      "tog": 4198,
      "stable": 4199,
      "progression": 4200,
      "##utaneous": 4201,
      "biops": 4202,
      "undergo": 4203,
      "variables": 4204,
      "reproduc": 4205,
      "together": 4206,
      "clus": 4207,
      "pathways": 4208,
      "##put": 4209,
      "##ortic": 4210,
      "experience": 4211,
      "proportion": 4212,
      "induction": 4213,
      "##ched": 4214,
      "cardiovascular": 4215,
      "course": 4216,
      "calculated": 4217,
      "stro": 4218,
      "rest": 4219,
      "##thr": 4220,
      "##imens": 4221,
      "experiment": 4222,
      "stem": 4223,
      "statistically": 4224,
      "sequences": 4225,
      "administered": 4226,
      "##icians": 4227,
      "strength": 4228,
      "gamma": 4229,
      "maximum": 4230,
      "cycle": 4231,
      "##nas": 4232,
      "irr": 4233,
      "##ogenous": 4234,
      "origin": 4235,
      "##atitis": 4236,
      "consequ": 4237,
      "pair": 4238,
      "##uff": 4239,
      "##se": 4240,
      "act": 4241,
      "##isms": 4242,
      "component": 4243,
      "kidney": 4244,
      "##itional": 4245,
      "adverse": 4246,
      "estimated": 4247,
      "iss": 4248,
      "##encing": 4249,
      "respond": 4250,
      "whole": 4251,
      "host": 4252,
      "nuclear": 4253,
      "regarding": 4254,
      "summ": 4255,
      "people": 4256,
      "alcohol": 4257,
      "ge": 4258,
      "##brid": 4259,
      "cohort": 4260,
      "polymorph": 4261,
      "##icial": 4262,
      "##eti": 4263,
      "respiratory": 4264,
      "resistant": 4265,
      "internal": 4266,
      "bro": 4267,
      "##oz": 4268,
      "antagon": 4269,
      "pp": 4270,
      "65": 4271,
      "wall": 4272,
      "linked": 4273,
      "##ession": 4274,
      "carried": 4275,
      "tempor": 4276,
      "public": 4277,
      "##gl": 4278,
      "much": 4279,
      "198": 4280,
      "prefer": 4281,
      "lact": 4282,
      "objectives": 4283,
      "ventricular": 4284,
      "include": 4285,
      "safety": 4286,
      "inflammation": 4287,
      "##inity": 4288,
      "43": 4289,
      "little": 4290,
      "needed": 4291,
      "03": 4292,
      "##idine": 4293,
      "39": 4294,
      "mutations": 4295,
      "domain": 4296,
      "##anced": 4297,
      "wid": 4298,
      "inhibitors": 4299,
      "variation": 4300,
      "##titution": 4301,
      "mak": 4302,
      "##osa": 4303,
      "##istry": 4304,
      "mamm": 4305,
      "sleep": 4306,
      "##rolog": 4307,
      "environmental": 4308,
      "##ank": 4309,
      "hypertension": 4310,
      "special": 4311,
      "severity": 4312,
      "best": 4313,
      "modified": 4314,
      "##other": 4315,
      "fas": 4316,
      "terms": 4317,
      "birth": 4318,
      "##anning": 4319,
      "dimension": 4320,
      "systemic": 4321,
      "laboratory": 4322,
      "##rix": 4323,
      "distinct": 4324,
      "specificity": 4325,
      "protoc": 4326,
      "##hydro": 4327,
      "exhibited": 4328,
      "##pling": 4329,
      "hb": 4330,
      "animal": 4331,
      "ped": 4332,
      "##acr": 4333,
      "along": 4334,
      "motor": 4335,
      "subsequent": 4336,
      "##activity": 4337,
      "bp": 4338,
      "taken": 4339,
      "##ered": 4340,
      "var": 4341,
      "ster": 4342,
      "relatively": 4343,
      "endothelial": 4344,
      "stroke": 4345,
      "##roscopic": 4346,
      "ng": 4347,
      "identification": 4348,
      "pt": 4349,
      "authors": 4350,
      "const": 4351,
      "recorded": 4352,
      "problem": 4353,
      "fix": 4354,
      "home": 4355,
      "pm": 4356,
      "cholesterol": 4357,
      "alg": 4358,
      "##ceptib": 4359,
      "monitoring": 4360,
      "44": 4361,
      "countr": 4362,
      "evolution": 4363,
      "##esized": 4364,
      "chemotherapy": 4365,
      "##encies": 4366,
      "appar": 4367,
      "selective": 4368,
      "conn": 4369,
      "radiation": 4370,
      "microb": 4371,
      "indicating": 4372,
      "##ense": 4373,
      "cys": 4374,
      "mt": 4375,
      "##cler": 4376,
      "having": 4377,
      "55": 4378,
      "##oding": 4379,
      "##bp": 4380,
      "atp": 4381,
      "susceptib": 4382,
      "bal": 4383,
      "randomized": 4384,
      "##ulating": 4385,
      "##uring": 4386,
      "spati": 4387,
      "his": 4388,
      "dysfunction": 4389,
      "star": 4390,
      "##ea": 4391,
      "##ococc": 4392,
      "##sh": 4393,
      "acqu": 4394,
      "late": 4395,
      "yield": 4396,
      "amount": 4397,
      "macroph": 4398,
      "degrad": 4399,
      "reson": 4400,
      "spe": 4401,
      "wide": 4402,
      "incor": 4403,
      "appropriate": 4404,
      "hypothesis": 4405,
      "##inated": 4406,
      "limit": 4407,
      "##atives": 4408,
      "traum": 4409,
      "restric": 4410,
      "mc": 4411,
      "##eff": 4412,
      "relevant": 4413,
      "confidence": 4414,
      "liqu": 4415,
      "##io": 4416,
      "able": 4417,
      "moderate": 4418,
      "##que": 4419,
      "thick": 4420,
      "source": 4421,
      "physiological": 4422,
      "measurement": 4423,
      "chromat": 4424,
      "bacteria": 4425,
      "bound": 4426,
      "remov": 4427,
      "recomb": 4428,
      "##onomic": 4429,
      "platelet": 4430,
      "##dl": 4431,
      "excl": 4432,
      "##otypes": 4433,
      "interventions": 4434,
      "##utive": 4435,
      "causes": 4436,
      "microscopy": 4437,
      "treatments": 4438,
      "##mediate": 4439,
      "designed": 4440,
      "tom": 4441,
      "composition": 4442,
      "underlying": 4443,
      "##ame": 4444,
      "ht": 4445,
      "hs": 4446,
      "sd": 4447,
      "##oral": 4448,
      "arterial": 4449,
      "double": 4450,
      "corresponding": 4451,
      "matrix": 4452,
      "72": 4453,
      "intracellular": 4454,
      "adoles": 4455,
      "##fact": 4456,
      "mainly": 4457,
      "grade": 4458,
      "efficiency": 4459,
      "##kn": 4460,
      "compare": 4461,
      "accuracy": 4462,
      "approaches": 4463,
      "41": 4464,
      "hybrid": 4465,
      "males": 4466,
      "stre": 4467,
      "implement": 4468,
      "hepat": 4469,
      "quantif": 4470,
      "intensity": 4471,
      "gran": 4472,
      "occur": 4473,
      "soci": 4474,
      "ven": 4475,
      "substan": 4476,
      "alk": 4477,
      "contex": 4478,
      "attention": 4479,
      "prevention": 4480,
      "cp": 4481,
      "continuous": 4482,
      "means": 4483,
      "##rin": 4484,
      "contribute": 4485,
      "##urb": 4486,
      "search": 4487,
      "cos": 4488,
      "46": 4489,
      "##itude": 4490,
      "cerebral": 4491,
      "females": 4492,
      "##ights": 4493,
      "strategy": 4494,
      "##oxy": 4495,
      "##uded": 4496,
      "antibiotic": 4497,
      "diabetic": 4498,
      "mental": 4499,
      "trig": 4500,
      "##fs": 4501,
      "##ressing": 4502,
      "education": 4503,
      "wild": 4504,
      "difficult": 4505,
      "famil": 4506,
      "myocardial": 4507,
      "alternative": 4508,
      "anterior": 4509,
      "developing": 4510,
      "later": 4511,
      "necessary": 4512,
      "repair": 4513,
      "gastric": 4514,
      "terminal": 4515,
      "##hood": 4516,
      "world": 4517,
      "##ometry": 4518,
      "selection": 4519,
      "cho": 4520,
      "reach": 4521,
      "though": 4522,
      "##oprotein": 4523,
      "adjus": 4524,
      "##uration": 4525,
      "detail": 4526,
      "half": 4527,
      "secretion": 4528,
      "reviewed": 4529,
      "shif": 4530,
      "arg": 4531,
      "memory": 4532,
      "ter": 4533,
      "frequently": 4534,
      "tnf": 4535,
      "chin": 4536,
      "national": 4537,
      "##amide": 4538,
      "##neum": 4539,
      "extent": 4540,
      "99": 4541,
      "images": 4542,
      "susp": 4543,
      "promot": 4544,
      "##anes": 4545,
      "##ending": 4546,
      "sodium": 4547,
      "predicted": 4548,
      "shows": 4549,
      "chol": 4550,
      "opp": 4551,
      "##yth": 4552,
      "##ique": 4553,
      "infants": 4554,
      "##ams": 4555,
      "04": 4556,
      "stability": 4557,
      "stimulated": 4558,
      "##ariate": 4559,
      "shap": 4560,
      "##enty": 4561,
      "directly": 4562,
      "cd4": 4563,
      "52": 4564,
      "students": 4565,
      "regard": 4566,
      "repl": 4567,
      "##oglob": 4568,
      "bur": 4569,
      "forms": 4570,
      "challeng": 4571,
      "genome": 4572,
      "intake": 4573,
      "transition": 4574,
      "##rine": 4575,
      "color": 4576,
      "imm": 4577,
      "appears": 4578,
      "tool": 4579,
      "##activ": 4580,
      "##ished": 4581,
      "##ometric": 4582,
      "##ges": 4583,
      "##illary": 4584,
      "gel": 4585,
      "persist": 4586,
      "third": 4587,
      "toxicity": 4588,
      "##ool": 4589,
      "adren": 4590,
      "full": 4591,
      "epithelial": 4592,
      "incorpor": 4593,
      "inh": 4594,
      "larger": 4595,
      "leading": 4596,
      "facilit": 4597,
      "47": 4598,
      "lesion": 4599,
      "err": 4600,
      "interfer": 4601,
      "pi": 4602,
      "hepatic": 4603,
      "instr": 4604,
      "isolates": 4605,
      "generation": 4606,
      "revers": 4607,
      "plasm": 4608,
      "hormone": 4609,
      "##orn": 4610,
      "mil": 4611,
      "she": 4612,
      "rs": 4613,
      "view": 4614,
      "resolution": 4615,
      "coli": 4616,
      "prospective": 4617,
      "diam": 4618,
      "last": 4619,
      "##cc": 4620,
      "processing": 4621,
      "##yg": 4622,
      "multiv": 4623,
      "tetr": 4624,
      "deriv": 4625,
      "led": 4626,
      "##iety": 4627,
      "iso": 4628,
      "reports": 4629,
      "bo": 4630,
      "transplantation": 4631,
      "##izes": 4632,
      "viral": 4633,
      "atr": 4634,
      "ta": 4635,
      "generated": 4636,
      "must": 4637,
      "##ady": 4638,
      "applications": 4639,
      "##orbidity": 4640,
      "neurop": 4641,
      "67": 4642,
      "cand": 4643,
      "##11": 4644,
      "##ee": 4645,
      "eu": 4646,
      "##eal": 4647,
      "involvement": 4648,
      "liquid": 4649,
      "americ": 4650,
      "56": 4651,
      "questionnaire": 4652,
      "inhibitory": 4653,
      "datab": 4654,
      "regulated": 4655,
      "metal": 4656,
      "aimed": 4657,
      "vas": 4658,
      "##ils": 4659,
      "eryth": 4660,
      "##tively": 4661,
      "fluorescence": 4662,
      "simult": 4663,
      "##plicated": 4664,
      "placebo": 4665,
      "##icle": 4666,
      "pneum": 4667,
      "mri": 4668,
      "allel": 4669,
      "above": 4670,
      "strongly": 4671,
      "##orrh": 4672,
      "enzymes": 4673,
      "simultaneous": 4674,
      "ever": 4675,
      "complexes": 4676,
      "accumulation": 4677,
      "prepared": 4678,
      "learning": 4679,
      "reactions": 4680,
      "54": 4681,
      "rather": 4682,
      "##ench": 4683,
      "##ectiveness": 4684,
      "adhes": 4685,
      "##etric": 4686,
      "analog": 4687,
      "remained": 4688,
      "##ened": 4689,
      "##ering": 4690,
      "enter": 4691,
      "variety": 4692,
      "lys": 4693,
      "alb": 4694,
      "##enic": 4695,
      "##obacter": 4696,
      "##ings": 4697,
      "ca2": 4698,
      "gast": 4699,
      "context": 4700,
      "64": 4701,
      "##ope": 4702,
      "investigation": 4703,
      "effectiveness": 4704,
      "urinary": 4705,
      "advanced": 4706,
      "eas": 4707,
      "unc": 4708,
      "sperm": 4709,
      "candid": 4710,
      "smoking": 4711,
      "categ": 4712,
      "exist": 4713,
      "##lu": 4714,
      "anx": 4715,
      "mutation": 4716,
      "tb": 4717,
      "conj": 4718,
      "clinically": 4719,
      "unique": 4720,
      "comm": 4721,
      "49": 4722,
      "resonance": 4723,
      "spinal": 4724,
      "satis": 4725,
      "reconstr": 4726,
      "rab": 4727,
      "yet": 4728,
      "statistical": 4729,
      "oxidative": 4730,
      "unit": 4731,
      "myel": 4732,
      "princ": 4733,
      "reference": 4734,
      "##tile": 4735,
      "53": 4736,
      "plants": 4737,
      "##uv": 4738,
      "percentage": 4739,
      "nerv": 4740,
      "dm": 4741,
      "haem": 4742,
      "##ector": 4743,
      "##venous": 4744,
      "stages": 4745,
      "nine": 4746,
      "substrate": 4747,
      "reas": 4748,
      "incub": 4749,
      "hp": 4750,
      "cath": 4751,
      "##ively": 4752,
      "profil": 4753,
      "malignant": 4754,
      "vess": 4755,
      "disp": 4756,
      "##tially": 4757,
      "##ecutive": 4758,
      "soft": 4759,
      "##ga": 4760,
      "finally": 4761,
      "rt": 4762,
      "ss": 4763,
      "optimal": 4764,
      "grad": 4765,
      "lateral": 4766,
      "kinetic": 4767,
      "##olip": 4768,
      "pyr": 4769,
      "cortex": 4770,
      "mechanical": 4771,
      "##ars": 4772,
      "bond": 4773,
      "resection": 4774,
      "subun": 4775,
      "ns": 4776,
      "specif": 4777,
      "##land": 4778,
      "removal": 4779,
      "emb": 4780,
      "agent": 4781,
      "partial": 4782,
      "systematic": 4783,
      "lum": 4784,
      "read": 4785,
      "##ots": 4786,
      "laser": 4787,
      "publish": 4788,
      "layer": 4789,
      "##artic": 4790,
      "specimens": 4791,
      "responsible": 4792,
      "pb": 4793,
      "longer": 4794,
      "dimensional": 4795,
      "maternal": 4796,
      "ann": 4797,
      "introduction": 4798,
      "85": 4799,
      "profile": 4800,
      "transmission": 4801,
      "significance": 4802,
      "extre": 4803,
      "##man": 4804,
      "supplement": 4805,
      "##oxide": 4806,
      "##ella": 4807,
      "##arily": 4808,
      "white": 4809,
      "##la": 4810,
      "paras": 4811,
      "unkn": 4812,
      "##opathy": 4813,
      "services": 4814,
      "iron": 4815,
      "squ": 4816,
      "fatty": 4817,
      "unknown": 4818,
      "cultures": 4819,
      "efficient": 4820,
      "recurrence": 4821,
      "##orting": 4822,
      "certain": 4823,
      "ten": 4824,
      "mild": 4825,
      "interest": 4826,
      "asth": 4827,
      "collagen": 4828,
      "call": 4829,
      "spont": 4830,
      "image": 4831,
      "mob": 4832,
      "cas": 4833,
      "##lation": 4834,
      "trad": 4835,
      "fish": 4836,
      "##irus": 4837,
      "induce": 4838,
      "##ired": 4839,
      "dog": 4840,
      "clos": 4841,
      "spontaneous": 4842,
      "produce": 4843,
      "51": 4844,
      "contact": 4845,
      "57": 4846,
      "pass": 4847,
      "highl": 4848,
      "now": 4849,
      "way": 4850,
      "mitochondrial": 4851,
      "##iology": 4852,
      "58": 4853,
      "##aces": 4854,
      "retrospective": 4855,
      "affinity": 4856,
      "##otide": 4857,
      "##ectal": 4858,
      "proj": 4859,
      "##tral": 4860,
      "##estern": 4861,
      "consumption": 4862,
      "product": 4863,
      "62": 4864,
      "##aine": 4865,
      "auto": 4866,
      "commonly": 4867,
      "##acch": 4868,
      "assays": 4869,
      "spatial": 4870,
      "neural": 4871,
      "infer": 4872,
      "advant": 4873,
      "invasive": 4874,
      "fetal": 4875,
      "fluor": 4876,
      "interpre": 4877,
      "##onucle": 4878,
      "published": 4879,
      "weak": 4880,
      "##inations": 4881,
      "rot": 4882,
      "ure": 4883,
      "##zed": 4884,
      "replac": 4885,
      "trend": 4886,
      "##ula": 4887,
      "##onia": 4888,
      "##hold": 4889,
      "majority": 4890,
      "antic": 4891,
      "63": 4892,
      "##ident": 4893,
      "neon": 4894,
      "ray": 4895,
      "aw": 4896,
      "predom": 4897,
      "interview": 4898,
      "numer": 4899,
      "##otrop": 4900,
      "rou": 4901,
      "center": 4902,
      "fav": 4903,
      "olig": 4904,
      "currently": 4905,
      "germ": 4906,
      "obes": 4907,
      "global": 4908,
      "ble": 4909,
      "cytotox": 4910,
      "##tation": 4911,
      "nature": 4912,
      "dynamics": 4913,
      "cerv": 4914,
      "extracellular": 4915,
      "##erative": 4916,
      "##astic": 4917,
      "##ients": 4918,
      "##den": 4919,
      "intern": 4920,
      "medicine": 4921,
      "fed": 4922,
      "tri": 4923,
      "mutant": 4924,
      "regulatory": 4925,
      "infusion": 4926,
      "formed": 4927,
      "nanop": 4928,
      "temporal": 4929,
      "obesity": 4930,
      "event": 4931,
      "##elling": 4932,
      "operation": 4933,
      "subst": 4934,
      "irradi": 4935,
      "divid": 4936,
      "implications": 4937,
      "##dominal": 4938,
      "aer": 4939,
      "hemat": 4940,
      "constit": 4941,
      "fit": 4942,
      "sexual": 4943,
      "basal": 4944,
      "potentially": 4945,
      "extern": 4946,
      "prostate": 4947,
      "differential": 4948,
      "coeff": 4949,
      "96": 4950,
      "##itr": 4951,
      "slow": 4952,
      "occurs": 4953,
      "upper": 4954,
      "vitamin": 4955,
      "aggreg": 4956,
      "anat": 4957,
      "##pled": 4958,
      "specifically": 4959,
      "countries": 4960,
      "force": 4961,
      "##ieve": 4962,
      "intestinal": 4963,
      "asym": 4964,
      "59": 4965,
      "pg": 4966,
      "66": 4967,
      "reactive": 4968,
      "##ohist": 4969,
      "##for": 4970,
      "melan": 4971,
      "ste": 4972,
      "##phal": 4973,
      "constant": 4974,
      "near": 4975,
      "agre": 4976,
      "dil": 4977,
      "marker": 4978,
      "##o2": 4979,
      "68": 4980,
      "attrib": 4981,
      "receiving": 4982,
      "##itable": 4983,
      "rr": 4984,
      "points": 4985,
      "staining": 4986,
      "chromatography": 4987,
      "neurolog": 4988,
      "biopsy": 4989,
      "histological": 4990,
      "##arin": 4991,
      "thyroid": 4992,
      "cu": 4993,
      "confirm": 4994,
      "##ify": 4995,
      "relation": 4996,
      "##itary": 4997,
      "segment": 4998,
      "norm": 4999,
      "prolong": 5000,
      "algor": 5001,
      "micros": 5002,
      "manner": 5003,
      "##erved": 5004,
      "reducing": 5005,
      "algorith": 5006,
      "profession": 5007,
      "##lyc": 5008,
      "recommend": 5009,
      "solid": 5010,
      "immunohist": 5011,
      "western": 5012,
      "sa": 5013,
      "anesth": 5014,
      "gender": 5015,
      "ves": 5016,
      "tend": 5017,
      "electroph": 5018,
      "den": 5019,
      "##alian": 5020,
      "##obic": 5021,
      "posterior": 5022,
      "successfully": 5023,
      "##most": 5024,
      "involving": 5025,
      "generally": 5026,
      "aims": 5027,
      "attenu": 5028,
      "expected": 5029,
      "become": 5030,
      "gastro": 5031,
      "morbidity": 5032,
      "twenty": 5033,
      "##aged": 5034,
      "fram": 5035,
      "broad": 5036,
      "completed": 5037,
      "cultured": 5038,
      "organic": 5039,
      "base": 5040,
      "toxic": 5041,
      "agon": 5042,
      "##ectin": 5043,
      "degradation": 5044,
      "acetyl": 5045,
      "ech": 5046,
      "located": 5047,
      "73": 5048,
      "assist": 5049,
      "molecule": 5050,
      "past": 5051,
      "pse": 5052,
      "dietary": 5053,
      "##itone": 5054,
      "adip": 5055,
      "sr": 5056,
      "core": 5057,
      "avoid": 5058,
      "resour": 5059,
      "another": 5060,
      "frequent": 5061,
      "##ocal": 5062,
      "intravenous": 5063,
      "##tration": 5064,
      "cad": 5065,
      "odds": 5066,
      "mixed": 5067,
      "barri": 5068,
      "cervical": 5069,
      "prognosis": 5070,
      "tract": 5071,
      "relationships": 5072,
      "rib": 5073,
      "tel": 5074,
      "purified": 5075,
      "##ocl": 5076,
      "external": 5077,
      "matched": 5078,
      "anxiety": 5079,
      "aortic": 5080,
      "##ytes": 5081,
      "##osin": 5082,
      "radical": 5083,
      "widely": 5084,
      "##cers": 5085,
      "cb": 5086,
      "##less": 5087,
      "members": 5088,
      "##ching": 5089,
      "benefit": 5090,
      "thres": 5091,
      "oh": 5092,
      "ds": 5093,
      "abnormalities": 5094,
      "abdominal": 5095,
      "humans": 5096,
      "cf": 5097,
      "##tility": 5098,
      "dl": 5099,
      "joint": 5100,
      "orth": 5101,
      "benz": 5102,
      "##onin": 5103,
      "pseud": 5104,
      "theory": 5105,
      "##eta": 5106,
      "neuronal": 5107,
      "tomography": 5108,
      "ifn": 5109,
      "##hyth": 5110,
      "recru": 5111,
      "conclude": 5112,
      "0001": 5113,
      "undergoing": 5114,
      "predictive": 5115,
      "##uls": 5116,
      "absorption": 5117,
      "ads": 5118,
      "igg": 5119,
      "attem": 5120,
      "disch": 5121,
      "person": 5122,
      "promoter": 5123,
      "##ories": 5124,
      "eye": 5125,
      "living": 5126,
      "78": 5127,
      "##ema": 5128,
      "adjusted": 5129,
      "divided": 5130,
      "thor": 5131,
      "wave": 5132,
      "##osing": 5133,
      "manif": 5134,
      "assemb": 5135,
      "##sis": 5136,
      "##ared": 5137,
      "map": 5138,
      "prognostic": 5139,
      "hydroxy": 5140,
      "flex": 5141,
      "rabb": 5142,
      "##odynamic": 5143,
      "leg": 5144,
      "retin": 5145,
      "slight": 5146,
      "##gens": 5147,
      "cc": 5148,
      "conform": 5149,
      "space": 5150,
      "##ields": 5151,
      "almost": 5152,
      "pathogenesis": 5153,
      "consecutive": 5154,
      "determination": 5155,
      "particles": 5156,
      "fo": 5157,
      "comparable": 5158,
      "interf": 5159,
      "##oring": 5160,
      "altered": 5161,
      "vary": 5162,
      "##eletal": 5163,
      "far": 5164,
      "subc": 5165,
      "61": 5166,
      "peptides": 5167,
      "##ontal": 5168,
      "associations": 5169,
      "##elium": 5170,
      "residues": 5171,
      "contribution": 5172,
      "##lasts": 5173,
      "defin": 5174,
      "graft": 5175,
      "##otion": 5176,
      "diameter": 5177,
      "optical": 5178,
      "##to": 5179,
      "##enge": 5180,
      "complement": 5181,
      "##uts": 5182,
      "remain": 5183,
      "around": 5184,
      "inser": 5185,
      "##olytic": 5186,
      "##53": 5187,
      "##arian": 5188,
      "variable": 5189,
      "oxide": 5190,
      "gh": 5191,
      "##ections": 5192,
      "##adder": 5193,
      "account": 5194,
      "elder": 5195,
      "rob": 5196,
      "aspects": 5197,
      "sed": 5198,
      "alterations": 5199,
      "76": 5200,
      "throughout": 5201,
      "feed": 5202,
      "du": 5203,
      "classification": 5204,
      "74": 5205,
      "chromosome": 5206,
      "accurate": 5207,
      "##he": 5208,
      "##ls": 5209,
      "##aryn": 5210,
      "##onch": 5211,
      "channel": 5212,
      "soil": 5213,
      "##alk": 5214,
      "69": 5215,
      "accept": 5216,
      "rev": 5217,
      "superior": 5218,
      "##aring": 5219,
      "##crim": 5220,
      "phosphorylation": 5221,
      "nanopartic": 5222,
      "##elines": 5223,
      "respect": 5224,
      "usually": 5225,
      "document": 5226,
      "impaired": 5227,
      "pancreatic": 5228,
      "##olved": 5229,
      "ga": 5230,
      "hypox": 5231,
      "##ounts": 5232,
      "protocol": 5233,
      "antioxid": 5234,
      "gal": 5235,
      "ligand": 5236,
      "exch": 5237,
      "##ico": 5238,
      "promising": 5239,
      "recip": 5240,
      "##ogenetic": 5241,
      "hydrogen": 5242,
      "elements": 5243,
      "pk": 5244,
      "##esia": 5245,
      "heterogene": 5246,
      "leads": 5247,
      "concept": 5248,
      "recombinant": 5249,
      "##16": 5250,
      "##ologies": 5251,
      "lymphocytes": 5252,
      "behavioral": 5253,
      "recognition": 5254,
      "convers": 5255,
      "thickness": 5256,
      "98": 5257,
      "migration": 5258,
      "ful": 5259,
      "phenotype": 5260,
      "challenge": 5261,
      "nas": 5262,
      "gest": 5263,
      "86": 5264,
      "allows": 5265,
      "sources": 5266,
      "roles": 5267,
      "##aves": 5268,
      "spl": 5269,
      "discover": 5270,
      "myc": 5271,
      "83": 5272,
      "discrim": 5273,
      "every": 5274,
      "vaccine": 5275,
      "lap": 5276,
      "wound": 5277,
      "fung": 5278,
      "emph": 5279,
      "urine": 5280,
      "plus": 5281,
      "##osyn": 5282,
      "82": 5283,
      "behaviour": 5284,
      "77": 5285,
      "##osite": 5286,
      "##tering": 5287,
      "92": 5288,
      "##rot": 5289,
      "ana": 5290,
      "tumour": 5291,
      "ratios": 5292,
      "proxim": 5293,
      "elderly": 5294,
      "##immun": 5295,
      "vel": 5296,
      "asthma": 5297,
      "making": 5298,
      "units": 5299,
      "84": 5300,
      "impairment": 5301,
      "uv": 5302,
      "guidelines": 5303,
      "ow": 5304,
      "ultrasound": 5305,
      "deficiency": 5306,
      "ty": 5307,
      "plays": 5308,
      "elim": 5309,
      "school": 5310,
      "##isc": 5311,
      "hipp": 5312,
      "som": 5313,
      "##dle": 5314,
      "##itud": 5315,
      "88": 5316,
      "cortical": 5317,
      "71": 5318,
      "obstr": 5319,
      "fast": 5320,
      "membranes": 5321,
      "requires": 5322,
      "rapidly": 5323,
      "infarc": 5324,
      "cord": 5325,
      "occurrence": 5326,
      "##ats": 5327,
      "root": 5328,
      "pac": 5329,
      "phosphate": 5330,
      "extraction": 5331,
      "##ori": 5332,
      "repeated": 5333,
      "bronch": 5334,
      "basic": 5335,
      "adequ": 5336,
      "polar": 5337,
      "synthesized": 5338,
      "cereb": 5339,
      "por": 5340,
      "sph": 5341,
      "##ention": 5342,
      "spectroscopy": 5343,
      "##uary": 5344,
      "profiles": 5345,
      "appeared": 5346,
      "mode": 5347,
      "##osine": 5348,
      "nf": 5349,
      "pen": 5350,
      "spectrum": 5351,
      "numbers": 5352,
      "macrophages": 5353,
      "cis": 5354,
      "biochemical": 5355,
      "fragment": 5356,
      "93": 5357,
      "##ermal": 5358,
      "multivariate": 5359,
      "##erex": 5360,
      "gp": 5361,
      "neut": 5362,
      "pla": 5363,
      "computed": 5364,
      "epidem": 5365,
      "##ectivity": 5366,
      "device": 5367,
      "##lo": 5368,
      "epis": 5369,
      "md": 5370,
      "inn": 5371,
      "abund": 5372,
      "traditional": 5373,
      "##reh": 5374,
      "97": 5375,
      "decision": 5376,
      "needs": 5377,
      "##iation": 5378,
      "##13": 5379,
      "polymerase": 5380,
      "extrem": 5381,
      "explore": 5382,
      "##ocamp": 5383,
      "##isation": 5384,
      "marrow": 5385,
      "occl": 5386,
      "potent": 5387,
      "hepatitis": 5388,
      "until": 5389,
      "enrol": 5390,
      "##ophys": 5391,
      "87": 5392,
      "heat": 5393,
      "europ": 5394,
      "pal": 5395,
      "79": 5396,
      "cv": 5397,
      "offer": 5398,
      "pathological": 5399,
      "##acchar": 5400,
      "##apping": 5401,
      "safe": 5402,
      "signs": 5403,
      "##imen": 5404,
      "subt": 5405,
      "compl": 5406,
      "94": 5407,
      "phenomen": 5408,
      "##flu": 5409,
      "signals": 5410,
      "manifest": 5411,
      "##gramm": 5412,
      "illness": 5413,
      "variability": 5414,
      "##icles": 5415,
      "predominant": 5416,
      "programs": 5417,
      "##used": 5418,
      "cav": 5419,
      "nod": 5420,
      "nucleus": 5421,
      "##ral": 5422,
      "##pati": 5423,
      "descrip": 5424,
      "physicians": 5425,
      "##ring": 5426,
      "tc": 5427,
      "##inate": 5428,
      "depart": 5429,
      "employed": 5430,
      "compreh": 5431,
      "poll": 5432,
      "observations": 5433,
      "completely": 5434,
      "assign": 5435,
      "aud": 5436,
      "nh": 5437,
      "endoscop": 5438,
      "biomark": 5439,
      "nursing": 5440,
      "final": 5441,
      "excess": 5442,
      "oxidation": 5443,
      "eyes": 5444,
      "indicates": 5445,
      "trauma": 5446,
      "89": 5447,
      "agreement": 5448,
      "##oration": 5449,
      "##ucid": 5450,
      "media": 5451,
      "experienced": 5452,
      "deep": 5453,
      "veloc": 5454,
      "clinic": 5455,
      "excell": 5456,
      "probably": 5457,
      "costs": 5458,
      "donor": 5459,
      "construc": 5460,
      "##rophy": 5461,
      "inst": 5462,
      "##phen": 5463,
      "recommended": 5464,
      "##bal": 5465,
      "polic": 5466,
      "make": 5467,
      "pediatric": 5468,
      "##clerosis": 5469,
      "##let": 5470,
      "divers": 5471,
      "bu": 5472,
      "##truct": 5473,
      "##aptic": 5474,
      "hippocamp": 5475,
      "technology": 5476,
      "neph": 5477,
      "amb": 5478,
      "recurrent": 5479,
      "europe": 5480,
      "pet": 5481,
      "orient": 5482,
      "spectrom": 5483,
      "fibrob": 5484,
      "##rs": 5485,
      "bmi": 5486,
      "occup": 5487,
      "genomic": 5488,
      "preoperative": 5489,
      "estimate": 5490,
      "compr": 5491,
      "h2": 5492,
      "arch": 5493,
      "assum": 5494,
      "##azole": 5495,
      "middle": 5496,
      "morphology": 5497,
      "targets": 5498,
      "understand": 5499,
      "polyp": 5500,
      "protection": 5501,
      "perception": 5502,
      "##ologous": 5503,
      "##erexp": 5504,
      "##osynth": 5505,
      "minutes": 5506,
      "##ompan": 5507,
      "##orter": 5508,
      "fully": 5509,
      "organization": 5510,
      "div": 5511,
      "##ialysis": 5512,
      "apparent": 5513,
      "find": 5514,
      "operative": 5515,
      "hg": 5516,
      "metastasis": 5517,
      "exce": 5518,
      "susceptibility": 5519,
      "##allel": 5520,
      "what": 5521,
      "##ulatory": 5522,
      "stabil": 5523,
      "accompan": 5524,
      "tolerance": 5525,
      "presentation": 5526,
      "protective": 5527,
      "onc": 5528,
      "dogs": 5529,
      "families": 5530,
      "dental": 5531,
      "endogenous": 5532,
      "conver": 5533,
      "noted": 5534,
      "fusion": 5535,
      "pan": 5536,
      "##ylated": 5537,
      "##thritis": 5538,
      "analysed": 5539,
      "np": 5540,
      "towards": 5541,
      "feas": 5542,
      "location": 5543,
      "university": 5544,
      "earl": 5545,
      "##ortun": 5546,
      "adhesion": 5547,
      "enti": 5548,
      "##eds": 5549,
      "carri": 5550,
      "turn": 5551,
      "overexp": 5552,
      "coord": 5553,
      "##tract": 5554,
      "emotion": 5555,
      "morphological": 5556,
      "minor": 5557,
      "motion": 5558,
      "blot": 5559,
      "pretre": 5560,
      "contained": 5561,
      "defic": 5562,
      "excellent": 5563,
      "##olds": 5564,
      "##20": 5565,
      "providing": 5566,
      "##teen": 5567,
      "##ework": 5568,
      "##eling": 5569,
      "close": 5570,
      "preparation": 5571,
      "##way": 5572,
      "##osomal": 5573,
      "jap": 5574,
      "##by": 5575,
      "computer": 5576,
      "issues": 5577,
      "neutral": 5578,
      "lapa": 5579,
      "##osal": 5580,
      "fa": 5581,
      "rich": 5582,
      "81": 5583,
      "distal": 5584,
      "randomly": 5585,
      "neoplas": 5586,
      "##ervation": 5587,
      "cytoplas": 5588,
      "domains": 5589,
      "##ester": 5590,
      "volun": 5591,
      "transf": 5592,
      "afric": 5593,
      "actin": 5594,
      "defects": 5595,
      "##ember": 5596,
      "ischemia": 5597,
      "bleeding": 5598,
      "##tp": 5599,
      "##erence": 5600,
      "##group": 5601,
      "reconstruction": 5602,
      "##oked": 5603,
      "framework": 5604,
      "sectional": 5605,
      "movement": 5606,
      "##ercul": 5607,
      "progress": 5608,
      "ros": 5609,
      "##iaz": 5610,
      "independ": 5611,
      "prolonged": 5612,
      "csf": 5613,
      "unl": 5614,
      "##ged": 5615,
      "american": 5616,
      "##osterone": 5617,
      "nons": 5618,
      "##oline": 5619,
      "stimuli": 5620,
      "elucid": 5621,
      "ovarian": 5622,
      "lc": 5623,
      "haz": 5624,
      "##ives": 5625,
      "microgram": 5626,
      "extensive": 5627,
      "thym": 5628,
      "##cents": 5629,
      "intact": 5630,
      "benefits": 5631,
      "##ancies": 5632,
      "ben": 5633,
      "none": 5634,
      "caro": 5635,
      "prem": 5636,
      "ethanol": 5637,
      "developmental": 5638,
      "existing": 5639,
      "intermediate": 5640,
      "camp": 5641,
      "##iform": 5642,
      "fund": 5643,
      "ather": 5644,
      "##ict": 5645,
      "milk": 5646,
      "distance": 5647,
      "##ocar": 5648,
      "##ata": 5649,
      "neck": 5650,
      "##itively": 5651,
      "theore": 5652,
      "programm": 5653,
      "delayed": 5654,
      "deliver": 5655,
      "satisf": 5656,
      "necrosis": 5657,
      "venous": 5658,
      "##eli": 5659,
      "##bl": 5660,
      "##18": 5661,
      "aug": 5662,
      "word": 5663,
      "ischemic": 5664,
      "oil": 5665,
      "enhance": 5666,
      "fif": 5667,
      "##fa": 5668,
      "whose": 5669,
      "schiz": 5670,
      "band": 5671,
      "database": 5672,
      "seems": 5673,
      "az": 5674,
      "sat": 5675,
      "adolescents": 5676,
      "feeding": 5677,
      "##apse": 5678,
      "emergency": 5679,
      "##ician": 5680,
      "##olysis": 5681,
      "injuries": 5682,
      "parallel": 5683,
      "below": 5684,
      "##ophag": 5685,
      "typical": 5686,
      "cruc": 5687,
      "logistic": 5688,
      "smaller": 5689,
      "##asia": 5690,
      "##ibly": 5691,
      "choice": 5692,
      "suitable": 5693,
      "immunos": 5694,
      "address": 5695,
      "except": 5696,
      "soluble": 5697,
      "immuno": 5698,
      "practic": 5699,
      "##atment": 5700,
      "##thers": 5701,
      "synthetic": 5702,
      "infarction": 5703,
      "##ione": 5704,
      "element": 5705,
      "possibility": 5706,
      "##aline": 5707,
      "##imer": 5708,
      "nam": 5709,
      "mn": 5710,
      "cancers": 5711,
      "medication": 5712,
      "##14": 5713,
      "transient": 5714,
      "fracture": 5715,
      "nervous": 5716,
      "routine": 5717,
      "bilateral": 5718,
      "put": 5719,
      "##estions": 5720,
      "au": 5721,
      "lang": 5722,
      "accel": 5723,
      "har": 5724,
      "nanoparticles": 5725,
      "##itoneal": 5726,
      "showing": 5727,
      "labeled": 5728,
      "targeted": 5729,
      "exchange": 5730,
      "##itals": 5731,
      "regen": 5732,
      "correct": 5733,
      "##ochemistry": 5734,
      "curve": 5735,
      "la": 5736,
      "princip": 5737,
      "##ream": 5738,
      "service": 5739,
      "reliable": 5740,
      "##organ": 5741,
      "##thal": 5742,
      "hazard": 5743,
      "maximal": 5744,
      "##eg": 5745,
      "serious": 5746,
      "mill": 5747,
      "hund": 5748,
      "diffusion": 5749,
      "clon": 5750,
      "hundred": 5751,
      "added": 5752,
      "propose": 5753,
      "growing": 5754,
      "##esh": 5755,
      "preven": 5756,
      "ker": 5757,
      "attach": 5758,
      "##phosph": 5759,
      "varied": 5760,
      "demographic": 5761,
      "observation": 5762,
      "sequencing": 5763,
      "3d": 5764,
      "colum": 5765,
      "##ococcus": 5766,
      "##ophage": 5767,
      "working": 5768,
      "bladder": 5769,
      "lv": 5770,
      "##anth": 5771,
      "gradi": 5772,
      "fm": 5773,
      "##cles": 5774,
      "tun": 5775,
      "egf": 5776,
      "pv": 5777,
      "##lycer": 5778,
      "regional": 5779,
      "cytokines": 5780,
      "congen": 5781,
      "cox": 5782,
      "venti": 5783,
      "gain": 5784,
      "igf": 5785,
      "perme": 5786,
      "##gans": 5787,
      "500": 5788,
      "mp": 5789,
      "##opic": 5790,
      "coupled": 5791,
      "precurs": 5792,
      "uns": 5793,
      "lps": 5794,
      "nurses": 5795,
      "##ump": 5796,
      "channels": 5797,
      "vag": 5798,
      "concluded": 5799,
      "cyp": 5800,
      "others": 5801,
      "##ra": 5802,
      "genotype": 5803,
      "radio": 5804,
      "comparing": 5805,
      "##oglobin": 5806,
      "primarily": 5807,
      "hf": 5808,
      "##igen": 5809,
      "autom": 5810,
      "cortic": 5811,
      "break": 5812,
      "oct": 5813,
      "##iral": 5814,
      "##oxyl": 5815,
      "91": 5816,
      "pf": 5817,
      "smo": 5818,
      "dele": 5819,
      "uter": 5820,
      "ions": 5821,
      "achieve": 5822,
      "##ocation": 5823,
      "markedly": 5824,
      "dc": 5825,
      "parents": 5826,
      "skill": 5827,
      "##taining": 5828,
      "##thern": 5829,
      "psychological": 5830,
      "relax": 5831,
      "##tenance": 5832,
      "interv": 5833,
      "fibrosis": 5834,
      "ak": 5835,
      "ip": 5836,
      "run": 5837,
      "fall": 5838,
      "ens": 5839,
      "trigg": 5840,
      "zn": 5841,
      "institution": 5842,
      "therapies": 5843,
      "maintenance": 5844,
      "ring": 5845,
      "antigens": 5846,
      "thre": 5847,
      "##anial": 5848,
      "minimal": 5849,
      "neutroph": 5850,
      "tgf": 5851,
      "phyl": 5852,
      "amounts": 5853,
      "conjug": 5854,
      "additionally": 5855,
      "##actic": 5856,
      "nucleotide": 5857,
      "##rophic": 5858,
      "tubercul": 5859,
      "epile": 5860,
      "recognized": 5861,
      "##idal": 5862,
      "commerc": 5863,
      "subject": 5864,
      "native": 5865,
      "blind": 5866,
      "dors": 5867,
      "cut": 5868,
      "ranged": 5869,
      "shift": 5870,
      "197": 5871,
      "##aria": 5872,
      "jan": 5873,
      "tryp": 5874,
      "##care": 5875,
      "##rich": 5876,
      "##osomes": 5877,
      "progressive": 5878,
      "diversity": 5879,
      "##jection": 5880,
      "metastatic": 5881,
      "##leuk": 5882,
      "##usc": 5883,
      "proximal": 5884,
      "##angl": 5885,
      "classified": 5886,
      "japan": 5887,
      "industr": 5888,
      "##inking": 5889,
      "##stream": 5890,
      "knee": 5891,
      "bran": 5892,
      "angle": 5893,
      "infil": 5894,
      "subgroup": 5895,
      "injected": 5896,
      "##ycin": 5897,
      "retinal": 5898,
      "##urg": 5899,
      "tit": 5900,
      "##ivalent": 5901,
      "##15": 5902,
      "benign": 5903,
      "periods": 5904,
      "mh": 5905,
      "##rocytes": 5906,
      "thermal": 5907,
      "port": 5908,
      "maintained": 5909,
      "bov": 5910,
      "uncle": 5911,
      "smooth": 5912,
      "hospitals": 5913,
      "t2": 5914,
      "antagonist": 5915,
      "international": 5916,
      "asc": 5917,
      "electronic": 5918,
      "seiz": 5919,
      "3h": 5920,
      "shape": 5921,
      "antioxidant": 5922,
      "solutions": 5923,
      "eti": 5924,
      "deficient": 5925,
      "irradiation": 5926,
      "musc": 5927,
      "node": 5928,
      "threshold": 5929,
      "##genic": 5930,
      "complication": 5931,
      "##cal": 5932,
      "subtyp": 5933,
      "partially": 5934,
      "invers": 5935,
      "##tingu": 5936,
      "communication": 5937,
      "fiber": 5938,
      "##itus": 5939,
      "longitud": 5940,
      "replacement": 5941,
      "behaviors": 5942,
      "contain": 5943,
      "##urine": 5944,
      "substantial": 5945,
      "earlier": 5946,
      "##orage": 5947,
      "caps": 5948,
      "failed": 5949,
      "probe": 5950,
      "never": 5951,
      "##ament": 5952,
      "occurring": 5953,
      "monocl": 5954,
      "algorithm": 5955,
      "catheter": 5956,
      "##erent": 5957,
      "##ested": 5958,
      "variations": 5959,
      "unclear": 5960,
      "kda": 5961,
      "##ili": 5962,
      "localized": 5963,
      "spectra": 5964,
      "##entical": 5965,
      "##cher": 5966,
      "reverse": 5967,
      "##urys": 5968,
      "scanning": 5969,
      "describes": 5970,
      "microg": 5971,
      "vac": 5972,
      "delta": 5973,
      "implementation": 5974,
      "perceived": 5975,
      "tools": 5976,
      "closely": 5977,
      "exhibit": 5978,
      "velocity": 5979,
      "dex": 5980,
      "subunit": 5981,
      "##ophren": 5982,
      "ru": 5983,
      "nitrogen": 5984,
      "tl": 5985,
      "##atib": 5986,
      "extended": 5987,
      "sufficient": 5988,
      "latter": 5989,
      "subsequently": 5990,
      "devices": 5991,
      "cn": 5992,
      "intervals": 5993,
      "depth": 5994,
      "shock": 5995,
      "arm": 5996,
      "##ias": 5997,
      "hla": 5998,
      "##ogens": 5999,
      "united": 6000,
      "enrich": 6001,
      "distingu": 6002,
      "metabolites": 6003,
      "gc": 6004,
      "neonatal": 6005,
      "regular": 6006,
      "enrolled": 6007,
      "qualit": 6008,
      "hydroly": 6009,
      "interesting": 6010,
      "schizophren": 6011,
      "seem": 6012,
      "influenced": 6013,
      "prediction": 6014,
      "hydroph": 6015,
      "chinese": 6016,
      "##letion": 6017,
      "##apl": 6018,
      "analyze": 6019,
      "sensory": 6020,
      "separation": 6021,
      "tm": 6022,
      "independently": 6023,
      "##we": 6024,
      "fab": 6025,
      "##hythm": 6026,
      "localization": 6027,
      "hd": 6028,
      "pathology": 6029,
      "##mitted": 6030,
      "adjust": 6031,
      "ig": 6032,
      "spin": 6033,
      "identical": 6034,
      "focused": 6035,
      "estimates": 6036,
      "beg": 6037,
      "hemorrh": 6038,
      "disturb": 6039,
      "excre": 6040,
      "##argeting": 6041,
      "counter": 6042,
      "##itiz": 6043,
      "rise": 6044,
      "opportun": 6045,
      "healthcare": 6046,
      "matter": 6047,
      "amyl": 6048,
      "surge": 6049,
      "##17": 6050,
      "atrial": 6051,
      "##ophageal": 6052,
      "obtain": 6053,
      "##tics": 6054,
      "bul": 6055,
      "represents": 6056,
      "acquired": 6057,
      "entire": 6058,
      "positively": 6059,
      "intensive": 6060,
      "##avage": 6061,
      "##aries": 6062,
      "lam": 6063,
      "vein": 6064,
      "##uit": 6065,
      "##ches": 6066,
      "dominant": 6067,
      "##rous": 6068,
      "##ises": 6069,
      "marg": 6070,
      "##ontin": 6071,
      "clearly": 6072,
      "targeting": 6073,
      "skeletal": 6074,
      "emp": 6075,
      "decreases": 6076,
      "##try": 6077,
      "p2": 6078,
      "incubation": 6079,
      "bis": 6080,
      "detailed": 6081,
      "suppression": 6082,
      "extracted": 6083,
      "persons": 6084,
      "height": 6085,
      "invasion": 6086,
      "derivatives": 6087,
      "inactiv": 6088,
      "comprehensive": 6089,
      "cam": 6090,
      "interleuk": 6091,
      "##rium": 6092,
      "thi": 6093,
      "##yle": 6094,
      "degen": 6095,
      "largely": 6096,
      "verte": 6097,
      "##eck": 6098,
      "hab": 6099,
      "initiation": 6100,
      "discharge": 6101,
      "illustr": 6102,
      "cytos": 6103,
      "cover": 6104,
      "perfusion": 6105,
      "magnitude": 6106,
      "sampling": 6107,
      "extracts": 6108,
      "encoding": 6109,
      "contraction": 6110,
      "##tious": 6111,
      "fibers": 6112,
      "direction": 6113,
      "monoclonal": 6114,
      "sten": 6115,
      "##back": 6116,
      "##ozyg": 6117,
      "atom": 6118,
      "pros": 6119,
      "competi": 6120,
      "enhancement": 6121,
      "records": 6122,
      "correlations": 6123,
      "improving": 6124,
      "january": 6125,
      "##intestinal": 6126,
      "derm": 6127,
      "##elf": 6128,
      "promote": 6129,
      "seas": 6130,
      "risks": 6131,
      "psychiatric": 6132,
      "fixed": 6133,
      "presenting": 6134,
      "childhood": 6135,
      "crystall": 6136,
      "aa": 6137,
      "department": 6138,
      "crystal": 6139,
      "pneumonia": 6140,
      "gastrointestinal": 6141,
      "error": 6142,
      "##19": 6143,
      "##irect": 6144,
      "slightly": 6145,
      "sinus": 6146,
      "##ocrine": 6147,
      "thirty": 6148,
      "spectrometry": 6149,
      "artif": 6150,
      "moth": 6151,
      "variants": 6152,
      "##eptide": 6153,
      "gab": 6154,
      "thorac": 6155,
      "challenges": 6156,
      "pregnant": 6157,
      "equal": 6158,
      "measuring": 6159,
      "emission": 6160,
      "suppress": 6161,
      "egg": 6162,
      "beneficial": 6163,
      "south": 6164,
      "##east": 6165,
      "hcv": 6166,
      "fractures": 6167,
      "done": 6168,
      "allowed": 6169,
      "interleukin": 6170,
      "storage": 6171,
      "cytokine": 6172,
      "gland": 6173,
      "circum": 6174,
      "##anine": 6175,
      "##ellar": 6176,
      "300": 6177,
      "dependence": 6178,
      "inclusion": 6179,
      "tyros": 6180,
      "ane": 6181,
      "reason": 6182,
      "characterization": 6183,
      "producing": 6184,
      "dispers": 6185,
      "neurological": 6186,
      "##aft": 6187,
      "crucial": 6188,
      "plan": 6189,
      "##ohy": 6190,
      "##ements": 6191,
      "silic": 6192,
      "face": 6193,
      "refr": 6194,
      "##ways": 6195,
      "06": 6196,
      "##oside": 6197,
      "##read": 6198,
      "##opa": 6199,
      "perc": 6200,
      "numerous": 6201,
      "goal": 6202,
      "effectively": 6203,
      "noise": 6204,
      "surfaces": 6205,
      "reh": 6206,
      "##olec": 6207,
      "longitudinal": 6208,
      "expressing": 6209,
      "adequate": 6210,
      "workers": 6211,
      "ethyl": 6212,
      "opi": 6213,
      "predictors": 6214,
      "balance": 6215,
      "healing": 6216,
      "##factory": 6217,
      "glutam": 6218,
      "contrac": 6219,
      "understood": 6220,
      "explain": 6221,
      "cluster": 6222,
      "##oman": 6223,
      "##ocarcin": 6224,
      "vessels": 6225,
      "nk": 6226,
      "##elled": 6227,
      "##atid": 6228,
      "diverse": 6229,
      "indirect": 6230,
      "presents": 6231,
      "250": 6232,
      "##queous": 6233,
      "modification": 6234,
      "muscles": 6235,
      "limb": 6236,
      "chick": 6237,
      "tex": 6238,
      "example": 6239,
      "remaining": 6240,
      "##athy": 6241,
      "meta": 6242,
      "parent": 6243,
      "newly": 6244,
      "possess": 6245,
      "##beta": 6246,
      "py": 6247,
      "highlight": 6248,
      "date": 6249,
      "##oa": 6250,
      "ldl": 6251,
      "died": 6252,
      "stimulus": 6253,
      "allele": 6254,
      "lob": 6255,
      "##ike": 6256,
      "lipoprotein": 6257,
      "wors": 6258,
      "##isa": 6259,
      "ranging": 6260,
      "exer": 6261,
      "airway": 6262,
      "vegf": 6263,
      "substit": 6264,
      "supported": 6265,
      "theoretical": 6266,
      "nitr": 6267,
      "practices": 6268,
      "aneurys": 6269,
      "questions": 6270,
      "aqueous": 6271,
      "arth": 6272,
      "tail": 6273,
      "wr": 6274,
      "##rotein": 6275,
      "p53": 6276,
      "##acer": 6277,
      "ast": 6278,
      "neither": 6279,
      "nmr": 6280,
      "rhe": 6281,
      "##rec": 6282,
      "histopath": 6283,
      "reper": 6284,
      "dos": 6285,
      "pel": 6286,
      "strept": 6287,
      "tuberculosis": 6288,
      "kill": 6289,
      "bc": 6290,
      "##enchym": 6291,
      "elic": 6292,
      "summar": 6293,
      "##otomy": 6294,
      "metastases": 6295,
      "hex": 6296,
      "##itted": 6297,
      "max": 6298,
      "accompanied": 6299,
      "coefficient": 6300,
      "validated": 6301,
      "aspir": 6302,
      "##bc": 6303,
      "obese": 6304,
      "##ichia": 6305,
      "albumin": 6306,
      "networks": 6307,
      "saline": 6308,
      "decline": 6309,
      "displayed": 6310,
      "sustained": 6311,
      "bovine": 6312,
      "transduc": 6313,
      "whom": 6314,
      "##acin": 6315,
      "hour": 6316,
      "##icin": 6317,
      "##isions": 6318,
      "##ovirus": 6319,
      "recommendations": 6320,
      "kinetics": 6321,
      "##rog": 6322,
      "cd8": 6323,
      "suppressed": 6324,
      "organisms": 6325,
      "gold": 6326,
      "##uting": 6327,
      "leukemia": 6328,
      "dy": 6329,
      "corne": 6330,
      "gm": 6331,
      "##ensions": 6332,
      "##alpha": 6333,
      "admission": 6334,
      "##a1": 6335,
      "transcriptional": 6336,
      "ple": 6337,
      "##oin": 6338,
      "determining": 6339,
      "granul": 6340,
      "micrograms": 6341,
      "##certain": 6342,
      "polymorphism": 6343,
      "##ades": 6344,
      "immunore": 6345,
      "ts": 6346,
      "simultaneously": 6347,
      "economic": 6348,
      "##kin": 6349,
      "amplitude": 6350,
      "##ires": 6351,
      "vector": 6352,
      "##transfer": 6353,
      "pulse": 6354,
      "introduced": 6355,
      "once": 6356,
      "robust": 6357,
      "persistent": 6358,
      "##rief": 6359,
      "##atase": 6360,
      "residual": 6361,
      "transcript": 6362,
      "explored": 6363,
      "dopamine": 6364,
      "organs": 6365,
      "##ologists": 6366,
      "assigned": 6367,
      "contains": 6368,
      "##dehy": 6369,
      "μm": 6370,
      "aging": 6371,
      "discussion": 6372,
      "##part": 6373,
      "##dm": 6374,
      "particle": 6375,
      "systolic": 6376,
      "taking": 6377,
      "spread": 6378,
      "teach": 6379,
      "##lim": 6380,
      "##ners": 6381,
      "mmp": 6382,
      "##itory": 6383,
      "controlling": 6384,
      "consequences": 6385,
      "mothers": 6386,
      "##ifications": 6387,
      "atheros": 6388,
      "younger": 6389,
      "arteries": 6390,
      "##ipl": 6391,
      "swit": 6392,
      "##patient": 6393,
      "considerable": 6394,
      "##anding": 6395,
      "conversion": 6396,
      "coupling": 6397,
      "##cribed": 6398,
      "phenyl": 6399,
      "consisted": 6400,
      "frequencies": 6401,
      "termin": 6402,
      "lymphoma": 6403,
      "acceler": 6404,
      "mutants": 6405,
      "mv": 6406,
      "diast": 6407,
      "engine": 6408,
      "##ows": 6409,
      "valve": 6410,
      "##sin": 6411,
      "##ycl": 6412,
      "##itant": 6413,
      "congenital": 6414,
      "##ilateral": 6415,
      "output": 6416,
      "appearance": 6417,
      "mis": 6418,
      "thought": 6419,
      "tes": 6420,
      "##operatively": 6421,
      "##okinetic": 6422,
      "substrates": 6423,
      "integrated": 6424,
      "affecting": 6425,
      "impl": 6426,
      "investigations": 6427,
      "directed": 6428,
      "chest": 6429,
      "120": 6430,
      "antimic": 6431,
      "defect": 6432,
      "salt": 6433,
      "capable": 6434,
      "green": 6435,
      "gir": 6436,
      "hm": 6437,
      "##illin": 6438,
      "vul": 6439,
      "poorly": 6440,
      "antimicrob": 6441,
      "personal": 6442,
      "fill": 6443,
      "colorectal": 6444,
      "ket": 6445,
      "##rose": 6446,
      "possibly": 6447,
      "speed": 6448,
      "##ulum": 6449,
      "ni": 6450,
      "langu": 6451,
      "resources": 6452,
      "##ina": 6453,
      "##be": 6454,
      "pool": 6455,
      "delay": 6456,
      "limitations": 6457,
      "##ectious": 6458,
      "##ensin": 6459,
      "##fr": 6460,
      "volunte": 6461,
      "##ton": 6462,
      "##enes": 6463,
      "return": 6464,
      "axis": 6465,
      "facilitate": 6466,
      "mammalian": 6467,
      "replication": 6468,
      "thin": 6469,
      "ethn": 6470,
      "functioning": 6471,
      "mand": 6472,
      "depending": 6473,
      "reflect": 6474,
      "favor": 6475,
      "##oglyc": 6476,
      "documented": 6477,
      "##eless": 6478,
      "##omycin": 6479,
      "##udes": 6480,
      "##otypic": 6481,
      "attemp": 6482,
      "##urally": 6483,
      "count": 6484,
      "clar": 6485,
      "dehydro": 6486,
      "kapp": 6487,
      "pretreatment": 6488,
      "reproductive": 6489,
      "nad": 6490,
      "emotional": 6491,
      "125": 6492,
      "wt": 6493,
      "##ush": 6494,
      "called": 6495,
      "##np": 6496,
      "##mediately": 6497,
      "##xt": 6498,
      "2000": 6499,
      "##ocardi": 6500,
      "volt": 6501,
      "clearance": 6502,
      "persp": 6503,
      "demonstrates": 6504,
      "pharmacological": 6505,
      "antibiotics": 6506,
      "elisa": 6507,
      "black": 6508,
      "##ban": 6509,
      "##osens": 6510,
      "##oe": 6511,
      "microbial": 6512,
      "##uvant": 6513,
      "##ecal": 6514,
      "lar": 6515,
      "graph": 6516,
      "rehabil": 6517,
      "electrical": 6518,
      "circulating": 6519,
      "escher": 6520,
      "##enia": 6521,
      "immediately": 6522,
      "mineral": 6523,
      "dual": 6524,
      "##uctive": 6525,
      "autoimmun": 6526,
      "fibr": 6527,
      "t1": 6528,
      "bow": 6529,
      "escherichia": 6530,
      "bat": 6531,
      "amp": 6532,
      "separate": 6533,
      "fresh": 6534,
      "lh": 6535,
      "ib": 6536,
      "influenz": 6537,
      "agonist": 6538,
      "##wide": 6539,
      "sections": 6540,
      "move": 6541,
      "##oplast": 6542,
      "pack": 6543,
      "recording": 6544,
      "cod": 6545,
      "07": 6546,
      "rod": 6547,
      "##bor": 6548,
      "##oved": 6549,
      "cd3": 6550,
      "##bar": 6551,
      "rein": 6552,
      "radiotherapy": 6553,
      "hair": 6554,
      "150": 6555,
      "affects": 6556,
      "explained": 6557,
      "efforts": 6558,
      "characterize": 6559,
      "nasal": 6560,
      "retention": 6561,
      "##illus": 6562,
      "##unding": 6563,
      "##oic": 6564,
      "rp": 6565,
      "validity": 6566,
      "reliability": 6567,
      "original": 6568,
      "gangl": 6569,
      "substance": 6570,
      "varying": 6571,
      "##plasia": 6572,
      "sarc": 6573,
      "##iciently": 6574,
      "hypoxia": 6575,
      "expans": 6576,
      "infectious": 6577,
      "placed": 6578,
      "transformation": 6579,
      "ck": 6580,
      "m2": 6581,
      "phospholip": 6582,
      "inoc": 6583,
      "fluorescent": 6584,
      "dend": 6585,
      "fractions": 6586,
      "creatin": 6587,
      "cul": 6588,
      "lowest": 6589,
      "satisfaction": 6590,
      "##get": 6591,
      "buff": 6592,
      "hpv": 6593,
      "initially": 6594,
      "##otropic": 6595,
      "adsorption": 6596,
      "staff": 6597,
      "settings": 6598,
      "distr": 6599,
      "conserved": 6600,
      "modulation": 6601,
      "implantation": 6602,
      "carotid": 6603,
      "methodology": 6604,
      "##exp": 6605,
      "brief": 6606,
      "##oidal": 6607,
      "charge": 6608,
      "simulations": 6609,
      "proph": 6610,
      "##upp": 6611,
      "insuff": 6612,
      "##iveness": 6613,
      "removed": 6614,
      "fu": 6615,
      "pairs": 6616,
      "##ocomp": 6617,
      "induces": 6618,
      "attit": 6619,
      "ground": 6620,
      "adop": 6621,
      "seed": 6622,
      "react": 6623,
      "##anged": 6624,
      "plate": 6625,
      "##izations": 6626,
      "feature": 6627,
      "##cephal": 6628,
      "gradient": 6629,
      "##avy": 6630,
      "probability": 6631,
      "simulation": 6632,
      "reactivity": 6633,
      "hcc": 6634,
      "schizophrenia": 6635,
      "scat": 6636,
      "##oblast": 6637,
      "glomer": 6638,
      "concern": 6639,
      "gon": 6640,
      "##ads": 6641,
      "availability": 6642,
      "##gs": 6643,
      "serve": 6644,
      "08": 6645,
      "repeat": 6646,
      "##avel": 6647,
      "cytoch": 6648,
      "mim": 6649,
      "gi": 6650,
      "qualitative": 6651,
      "retro": 6652,
      "##oresis": 6653,
      "##treated": 6654,
      "reached": 6655,
      "identifying": 6656,
      "ulcer": 6657,
      "arthritis": 6658,
      "estrogen": 6659,
      "infr": 6660,
      "peroxid": 6661,
      "puls": 6662,
      "burden": 6663,
      "junction": 6664,
      "upreg": 6665,
      "cyst": 6666,
      "##osity": 6667,
      "##acet": 6668,
      "hybridization": 6669,
      "coc": 6670,
      "tyrosine": 6671,
      "subjected": 6672,
      "##ophosph": 6673,
      "##axis": 6674,
      "##itin": 6675,
      "murine": 6676,
      "minimum": 6677,
      "vaccination": 6678,
      "occlusion": 6679,
      "##ze": 6680,
      "mature": 6681,
      "knock": 6682,
      "duct": 6683,
      "disability": 6684,
      "jun": 6685,
      "dp": 6686,
      "cyclic": 6687,
      "##b1": 6688,
      "mixture": 6689,
      "words": 6690,
      "plastic": 6691,
      "glycop": 6692,
      "restricted": 6693,
      "suic": 6694,
      "yeast": 6695,
      "receive": 6696,
      "##uria": 6697,
      "cdna": 6698,
      "##electr": 6699,
      "comput": 6700,
      "coding": 6701,
      "echocardi": 6702,
      "centers": 6703,
      "casp": 6704,
      "concerning": 6705,
      "fragments": 6706,
      "##aphyl": 6707,
      "adherence": 6708,
      "##ocytic": 6709,
      "equivalent": 6710,
      "planning": 6711,
      "deaths": 6712,
      "language": 6713,
      "decl": 6714,
      "rank": 6715,
      "##cap": 6716,
      "##insic": 6717,
      "unf": 6718,
      "proved": 6719,
      "##aper": 6720,
      "spr": 6721,
      "400": 6722,
      "lt": 6723,
      "zinc": 6724,
      "nearly": 6725,
      "rehabilitation": 6726,
      "eb": 6727,
      "compart": 6728,
      "lep": 6729,
      "##ostasis": 6730,
      "column": 6731,
      "##hg": 6732,
      "advances": 6733,
      "changed": 6734,
      "actions": 6735,
      "temperatures": 6736,
      "regulate": 6737,
      "users": 6738,
      "hearing": 6739,
      "heavy": 6740,
      "isolation": 6741,
      "tax": 6742,
      "barrier": 6743,
      "##acl": 6744,
      "##atically": 6745,
      "advantages": 6746,
      "similarly": 6747,
      "sf": 6748,
      "deletion": 6749,
      "gap": 6750,
      "biomarkers": 6751,
      "attenuated": 6752,
      "##acent": 6753,
      "pathogen": 6754,
      "includes": 6755,
      "##entia": 6756,
      "##omet": 6757,
      "##sa": 6758,
      "2010": 6759,
      "display": 6760,
      "physician": 6761,
      "policy": 6762,
      "urban": 6763,
      "woman": 6764,
      "pelv": 6765,
      "##opo": 6766,
      "european": 6767,
      "assessing": 6768,
      "practical": 6769,
      "steps": 6770,
      "cytotoxic": 6771,
      "concom": 6772,
      "pure": 6773,
      "embryos": 6774,
      "admitted": 6775,
      "catalytic": 6776,
      "belong": 6777,
      "fibrin": 6778,
      "ce": 6779,
      "summary": 6780,
      "involves": 6781,
      "tp": 6782,
      "##pass": 6783,
      "##ware": 6784,
      "antimicrobial": 6785,
      "skills": 6786,
      "##usive": 6787,
      "##usal": 6788,
      "##accharide": 6789,
      "parameter": 6790,
      "biosynth": 6791,
      "dip": 6792,
      "rating": 6793,
      "gaba": 6794,
      "thereby": 6795,
      "methylation": 6796,
      "collection": 6797,
      "##forms": 6798,
      "ligands": 6799,
      "walk": 6800,
      "express": 6801,
      "##25": 6802,
      "epithelium": 6803,
      "stay": 6804,
      "constructed": 6805,
      "##dehyde": 6806,
      "phenomenon": 6807,
      "issue": 6808,
      "cycles": 6809,
      "##illance": 6810,
      "stenosis": 6811,
      "viability": 6812,
      "tube": 6813,
      "modeling": 6814,
      "rar": 6815,
      "manip": 6816,
      "draw": 6817,
      "bile": 6818,
      "pathophys": 6819,
      "composite": 6820,
      "scientif": 6821,
      "phases": 6822,
      "scan": 6823,
      "fibroblasts": 6824,
      "cartil": 6825,
      "##co": 6826,
      "infant": 6827,
      "concomitant": 6828,
      "prevented": 6829,
      "##err": 6830,
      "##wh": 6831,
      "##isp": 6832,
      "prophyl": 6833,
      "released": 6834,
      "ages": 6835,
      "leaf": 6836,
      "##anded": 6837,
      "sensor": 6838,
      "fixation": 6839,
      "medial": 6840,
      "bias": 6841,
      "##olin": 6842,
      "treating": 6843,
      "accoun": 6844,
      "endoscopic": 6845,
      "discre": 6846,
      "nodes": 6847,
      "##wise": 6848,
      "##oscopy": 6849,
      "trim": 6850,
      "standardized": 6851,
      "sera": 6852,
      "variance": 6853,
      "composed": 6854,
      "##itol": 6855,
      "monitored": 6856,
      "austr": 6857,
      "evoked": 6858,
      "depressive": 6859,
      "untreated": 6860,
      "femoral": 6861,
      "symptomatic": 6862,
      "dementia": 6863,
      "mb": 6864,
      "shorter": 6865,
      "absol": 6866,
      "surveillance": 6867,
      "##nt": 6868,
      "bin": 6869,
      "##time": 6870,
      "pharmacokinetic": 6871,
      "antis": 6872,
      "ba": 6873,
      "##ilities": 6874,
      "implicated": 6875,
      "##ohydr": 6876,
      "surviv": 6877,
      "p3": 6878,
      "transpor": 6879,
      "##omers": 6880,
      "##40": 6881,
      "sulfate": 6882,
      "advantage": 6883,
      "stere": 6884,
      "##issions": 6885,
      "dry": 6886,
      "##onas": 6887,
      "reporting": 6888,
      "immediate": 6889,
      "saliv": 6890,
      "fields": 6891,
      "##ash": 6892,
      "supr": 6893,
      "deposition": 6894,
      "##aemia": 6895,
      "consisting": 6896,
      "segments": 6897,
      "retrospectively": 6898,
      "overexpression": 6899,
      "sple": 6900,
      "glycos": 6901,
      "polymorphisms": 6902,
      "variant": 6903,
      "trunc": 6904,
      "mi": 6905,
      "distributed": 6906,
      "forming": 6907,
      "nico": 6908,
      "si": 6909,
      "melanoma": 6910,
      "gli": 6911,
      "##ache": 6912,
      "analges": 6913,
      "##path": 6914,
      "##acial": 6915,
      "##transferase": 6916,
      "viruses": 6917,
      "dissoci": 6918,
      "attributed": 6919,
      "bowel": 6920,
      "instrument": 6921,
      "db": 6922,
      "blocked": 6923,
      "rheum": 6924,
      "##iologic": 6925,
      "suspected": 6926,
      "##inning": 6927,
      "##idin": 6928,
      "foot": 6929,
      "inters": 6930,
      "cg": 6931,
      "iod": 6932,
      "improvements": 6933,
      "μg": 6934,
      "give": 6935,
      "glutath": 6936,
      "remark": 6937,
      "##iance": 6938,
      "dorsal": 6939,
      "china": 6940,
      "utilization": 6941,
      "generate": 6942,
      "room": 6943,
      "driven": 6944,
      "north": 6945,
      "spectral": 6946,
      "##chron": 6947,
      "deform": 6948,
      "flav": 6949,
      "differentiated": 6950,
      "sti": 6951,
      "metall": 6952,
      "pitu": 6953,
      "gover": 6954,
      "##teine": 6955,
      "comparative": 6956,
      "sets": 6957,
      "zone": 6958,
      "excretion": 6959,
      "experiences": 6960,
      "sir": 6961,
      "##oon": 6962,
      "dimin": 6963,
      "##ril": 6964,
      "##abilities": 6965,
      "lens": 6966,
      "tasks": 6967,
      "adjacent": 6968,
      "expansion": 6969,
      "assisted": 6970,
      "aggregation": 6971,
      "own": 6972,
      "nitric": 6973,
      "aid": 6974,
      "assembly": 6975,
      "depends": 6976,
      "mell": 6977,
      "volunteers": 6978,
      "ing": 6979,
      "nt": 6980,
      "locus": 6981,
      "rabbit": 6982,
      "asymm": 6983,
      "overl": 6984,
      "applic": 6985,
      "##ensus": 6986,
      "pigs": 6987,
      "stat": 6988,
      "progen": 6989,
      "interface": 6990,
      "dram": 6991,
      "multid": 6992,
      "scientific": 6993,
      "ld": 6994,
      "relevance": 6995,
      "##23": 6996,
      "##mentation": 6997,
      "##pler": 6998,
      "increasingly": 6999,
      "sedim": 7000,
      "##otr": 7001,
      "dehydrogen": 7002,
      "fol": 7003,
      "negatively": 7004,
      "libr": 7005,
      "##ogram": 7006,
      "undert": 7007,
      "##pan": 7008,
      "predominantly": 7009,
      "influenza": 7010,
      "##omical": 7011,
      "##angi": 7012,
      "rout": 7013,
      "##geal": 7014,
      "limits": 7015,
      "rural": 7016,
      "anesthesia": 7017,
      "adenocarcin": 7018,
      "09": 7019,
      "##ilib": 7020,
      "restriction": 7021,
      "separated": 7022,
      "glutathione": 7023,
      "apoptotic": 7024,
      "referred": 7025,
      "became": 7026,
      "breath": 7027,
      "socio": 7028,
      "##term": 7029,
      "pu": 7030,
      "parad": 7031,
      "operating": 7032,
      "traits": 7033,
      "glutamate": 7034,
      "contamin": 7035,
      "next": 7036,
      "clusters": 7037,
      "##ilibrium": 7038,
      "hard": 7039,
      "take": 7040,
      "elevation": 7041,
      "embryonic": 7042,
      "##plc": 7043,
      "##des": 7044,
      "tg": 7045,
      "nc": 7046,
      "biof": 7047,
      "susceptible": 7048,
      "immob": 7049,
      "sv": 7050,
      "nuclei": 7051,
      "extremely": 7052,
      "donors": 7053,
      "forty": 7054,
      "drinking": 7055,
      "##ury": 7056,
      "tur": 7057,
      "compet": 7058,
      "detectable": 7059,
      "##mp": 7060,
      "candidate": 7061,
      "commercial": 7062,
      "pic": 7063,
      "pituitary": 7064,
      "##ulus": 7065,
      "immunity": 7066,
      "evaluating": 7067,
      "##lets": 7068,
      "synaptic": 7069,
      "interpretation": 7070,
      "insertion": 7071,
      "laparoscopic": 7072,
      "bor": 7073,
      "mmol": 7074,
      "aids": 7075,
      "autoimmune": 7076,
      "miss": 7077,
      "check": 7078,
      "errors": 7079,
      "steroid": 7080,
      "substitution": 7081,
      "##ks": 7082,
      "tumours": 7083,
      "cx": 7084,
      "##eting": 7085,
      "2d": 7086,
      "cum": 7087,
      "cytotoxicity": 7088,
      "prosth": 7089,
      "extension": 7090,
      "wa": 7091,
      "quant": 7092,
      "recruited": 7093,
      "waste": 7094,
      "electrophoresis": 7095,
      "cataly": 7096,
      "loading": 7097,
      "potentials": 7098,
      "facial": 7099,
      "recipients": 7100,
      "prelim": 7101,
      "osc": 7102,
      "curves": 7103,
      "##ips": 7104,
      "valuable": 7105,
      "diastolic": 7106,
      "acetate": 7107,
      "bypass": 7108,
      "##acting": 7109,
      "nr": 7110,
      "putative": 7111,
      "##gar": 7112,
      "relaxation": 7113,
      "recovered": 7114,
      "easily": 7115,
      "cytochrome": 7116,
      "##water": 7117,
      "##57": 7118,
      "ub": 7119,
      "sho": 7120,
      "anomal": 7121,
      "absolute": 7122,
      "pil": 7123,
      "episodes": 7124,
      "expect": 7125,
      "##aryngeal": 7126,
      "multic": 7127,
      "mucosa": 7128,
      "analytical": 7129,
      "bind": 7130,
      "proton": 7131,
      "bd": 7132,
      "angiot": 7133,
      "cry": 7134,
      "professional": 7135,
      "threat": 7136,
      "tob": 7137,
      "counts": 7138,
      "obstruction": 7139,
      "gram": 7140,
      "african": 7141,
      "decreasing": 7142,
      "xen": 7143,
      "pathogens": 7144,
      "vessel": 7145,
      "twice": 7146,
      "glycoprotein": 7147,
      "calculations": 7148,
      "transgenic": 7149,
      "abuse": 7150,
      "subcutaneous": 7151,
      "##agulation": 7152,
      "lymphocyte": 7153,
      "adrenal": 7154,
      "house": 7155,
      "veh": 7156,
      "hdl": 7157,
      "always": 7158,
      "continued": 7159,
      "##ging": 7160,
      "feedback": 7161,
      "##ocytosis": 7162,
      "grown": 7163,
      "##hs": 7164,
      "articles": 7165,
      "##ruption": 7166,
      "##atif": 7167,
      "causing": 7168,
      "uncertain": 7169,
      "maintain": 7170,
      "mostly": 7171,
      "##hydr": 7172,
      "ect": 7173,
      "encoun": 7174,
      "##urance": 7175,
      "mellitus": 7176,
      "hence": 7177,
      "##bre": 7178,
      "##era": 7179,
      "##oints": 7180,
      "bac": 7181,
      "regulating": 7182,
      "synthase": 7183,
      "biology": 7184,
      "angiotensin": 7185,
      "reasons": 7186,
      "2009": 7187,
      "preparations": 7188,
      "cavity": 7189,
      "cartilage": 7190,
      "spleen": 7191,
      "##acco": 7192,
      "december": 7193,
      "chains": 7194,
      "pron": 7195,
      "emphas": 7196,
      "acad": 7197,
      "adaptation": 7198,
      "define": 7199,
      "film": 7200,
      "##veolar": 7201,
      "##yte": 7202,
      "live": 7203,
      "incorporation": 7204,
      "##tor": 7205,
      "##aken": 7206,
      "integration": 7207,
      "art": 7208,
      "ju": 7209,
      "interviews": 7210,
      "co2": 7211,
      "##ensis": 7212,
      "fing": 7213,
      "mitochondria": 7214,
      "##abs": 7215,
      "typically": 7216,
      "##ptomatic": 7217,
      "deficits": 7218,
      "nutrition": 7219,
      "fewer": 7220,
      "clinicians": 7221,
      "distinguish": 7222,
      "correspond": 7223,
      "reduces": 7224,
      "penetr": 7225,
      "cla": 7226,
      "estr": 7227,
      "considering": 7228,
      "heterogeneity": 7229,
      "greatly": 7230,
      "utility": 7231,
      "regimen": 7232,
      "##isition": 7233,
      "##rup": 7234,
      "solvent": 7235,
      "track": 7236,
      "phylogenetic": 7237,
      "1000": 7238,
      "2012": 7239,
      "angiography": 7240,
      "gs": 7241,
      "layers": 7242,
      "reperfusion": 7243,
      "##onate": 7244,
      "categories": 7245,
      "emerging": 7246,
      "##fp": 7247,
      "##igible": 7248,
      "preliminary": 7249,
      "cond": 7250,
      "ester": 7251,
      "quin": 7252,
      "existence": 7253,
      "indices": 7254,
      "##ayer": 7255,
      "predictor": 7256,
      "scal": 7257,
      "aure": 7258,
      "##opol": 7259,
      "reviews": 7260,
      "residents": 7261,
      "##atig": 7262,
      "fever": 7263,
      "excit": 7264,
      "##ifying": 7265,
      "adjustment": 7266,
      "smokers": 7267,
      "hydr": 7268,
      "tobacco": 7269,
      "copper": 7270,
      "hypothal": 7271,
      "adjuvant": 7272,
      "cold": 7273,
      "acquisition": 7274,
      "##60": 7275,
      "decomp": 7276,
      "##ematic": 7277,
      "correction": 7278,
      "blue": 7279,
      "##igm": 7280,
      "viol": 7281,
      "communities": 7282,
      "sept": 7283,
      "pert": 7284,
      "##oxin": 7285,
      "epileps": 7286,
      "list": 7287,
      "strom": 7288,
      "retic": 7289,
      "##1a": 7290,
      "oscill": 7291,
      "##mental": 7292,
      "fatig": 7293,
      "buil": 7294,
      "veget": 7295,
      "##gi": 7296,
      "compens": 7297,
      "utilized": 7298,
      "quantum": 7299,
      "supplementation": 7300,
      "extra": 7301,
      "precursor": 7302,
      "bearing": 7303,
      "injections": 7304,
      "##etal": 7305,
      "orb": 7306,
      "fabric": 7307,
      "interferon": 7308,
      "##dp": 7309,
      "##alities": 7310,
      "adenosine": 7311,
      "##phenyl": 7312,
      "maturation": 7313,
      "cytoplasmic": 7314,
      "sup": 7315,
      "definition": 7316,
      "mer": 7317,
      "immunosupp": 7318,
      "align": 7319,
      "caspase": 7320,
      "cns": 7321,
      "##gal": 7322,
      "plasmid": 7323,
      "displac": 7324,
      "software": 7325,
      "items": 7326,
      "contents": 7327,
      "identi": 7328,
      "hypothesized": 7329,
      "voltage": 7330,
      "##assium": 7331,
      "clim": 7332,
      "unus": 7333,
      "focal": 7334,
      "##fe": 7335,
      "2011": 7336,
      "pall": 7337,
      "##draw": 7338,
      "cleavage": 7339,
      "nonc": 7340,
      "inferior": 7341,
      "rc": 7342,
      "outs": 7343,
      "##vascular": 7344,
      "project": 7345,
      "orientation": 7346,
      "##amous": 7347,
      "e2": 7348,
      "withdraw": 7349,
      "dehydrogenase": 7350,
      "##amental": 7351,
      "##ley": 7352,
      "serot": 7353,
      "toxin": 7354,
      "carbohydr": 7355,
      "potassium": 7356,
      "true": 7357,
      "asymptomatic": 7358,
      "classical": 7359,
      "arom": 7360,
      "mening": 7361,
      "loci": 7362,
      "intrinsic": 7363,
      "motiv": 7364,
      "beam": 7365,
      "conduct": 7366,
      "##ophen": 7367,
      "aureus": 7368,
      "nutritional": 7369,
      "ventilation": 7370,
      "insight": 7371,
      "ace": 7372,
      "##adiol": 7373,
      "jud": 7374,
      "eosin": 7375,
      "immunohistochemistry": 7376,
      "##omat": 7377,
      "stratif": 7378,
      "##yc": 7379,
      "influences": 7380,
      "park": 7381,
      "distress": 7382,
      "gall": 7383,
      "tib": 7384,
      "yielded": 7385,
      "teeth": 7386,
      "hsp": 7387,
      "loop": 7388,
      "##ready": 7389,
      "dialysis": 7390,
      "##mark": 7391,
      "##atidyl": 7392,
      "already": 7393,
      "config": 7394,
      "perf": 7395,
      "##weight": 7396,
      "chloride": 7397,
      "##amination": 7398,
      "##ears": 7399,
      "aggressive": 7400,
      "genotypes": 7401,
      "mucosal": 7402,
      "requirements": 7403,
      "unch": 7404,
      "requiring": 7405,
      "interc": 7406,
      "mach": 7407,
      "##70": 7408,
      "##uments": 7409,
      "##dna": 7410,
      "yo": 7411,
      "##chem": 7412,
      "regeneration": 7413,
      "pyl": 7414,
      "cutaneous": 7415,
      "auditory": 7416,
      "mobility": 7417,
      "array": 7418,
      "##min": 7419,
      "##idase": 7420,
      "bcl": 7421,
      "exogenous": 7422,
      "##ister": 7423,
      "pump": 7424,
      "fc": 7425,
      "scales": 7426,
      "##ilization": 7427,
      "ln": 7428,
      "classes": 7429,
      "##22": 7430,
      "##oden": 7431,
      "adaptive": 7432,
      "dihydro": 7433,
      "aort": 7434,
      "predicting": 7435,
      "input": 7436,
      "amyloid": 7437,
      "motif": 7438,
      "validation": 7439,
      "coch": 7440,
      "2008": 7441,
      "amph": 7442,
      "2013": 7443,
      "mapping": 7444,
      "##ux": 7445,
      "##ylate": 7446,
      "differed": 7447,
      "##enchymal": 7448,
      "##choline": 7449,
      "transfusion": 7450,
      "bey": 7451,
      "ah": 7452,
      "staphyl": 7453,
      "options": 7454,
      "epilepsy": 7455,
      "estimation": 7456,
      "##uch": 7457,
      "enzymatic": 7458,
      "##phrine": 7459,
      "evident": 7460,
      "beyond": 7461,
      "precip": 7462,
      "gave": 7463,
      "participation": 7464,
      "relapse": 7465,
      "neurot": 7466,
      "pent": 7467,
      "##ipp": 7468,
      "steady": 7469,
      "educational": 7470,
      "carcinomas": 7471,
      "trends": 7472,
      "mu": 7473,
      "rabbits": 7474,
      "sched": 7475,
      "dh": 7476,
      "brom": 7477,
      "sul": 7478,
      "##ette": 7479,
      "##rovers": 7480,
      "inner": 7481,
      "hemorrhage": 7482,
      "##oyl": 7483,
      "herein": 7484,
      "bip": 7485,
      "insights": 7486,
      "arab": 7487,
      "phyt": 7488,
      "##30": 7489,
      "protocols": 7490,
      "##olecular": 7491,
      "lipids": 7492,
      "inhal": 7493,
      "##ief": 7494,
      "##ulative": 7495,
      "##eses": 7496,
      "examinations": 7497,
      "reversed": 7498,
      "##iness": 7499,
      "##zyme": 7500,
      "cirrh": 7501,
      "barriers": 7502,
      "substances": 7503,
      "abstract": 7504,
      "scaff": 7505,
      "eg": 7506,
      "##oplasty": 7507,
      "movements": 7508,
      "remission": 7509,
      "undertaken": 7510,
      "fundamental": 7511,
      "hz": 7512,
      "permeability": 7513,
      "secret": 7514,
      "interact": 7515,
      "002": 7516,
      "##max": 7517,
      "remod": 7518,
      "corneal": 7519,
      "careful": 7520,
      "lamin": 7521,
      "rig": 7522,
      "##fluores": 7523,
      "salmon": 7524,
      "worldwide": 7525,
      "formal": 7526,
      "mmhg": 7527,
      "society": 7528,
      "hemoglobin": 7529,
      "pn": 7530,
      "argin": 7531,
      "vide": 7532,
      "##ospor": 7533,
      "parts": 7534,
      "discovery": 7535,
      "intram": 7536,
      "trop": 7537,
      "immunoglob": 7538,
      "shr": 7539,
      "seek": 7540,
      "controvers": 7541,
      "immunohistochemical": 7542,
      "thoracic": 7543,
      "medications": 7544,
      "##areness": 7545,
      "superf": 7546,
      "macrophage": 7547,
      "stent": 7548,
      "overc": 7549,
      "fatigue": 7550,
      "correlate": 7551,
      "hemodynamic": 7552,
      "phosphatase": 7553,
      "ocular": 7554,
      "embol": 7555,
      "##opathic": 7556,
      "precise": 7557,
      "##azol": 7558,
      "##iction": 7559,
      "##urated": 7560,
      "positions": 7561,
      "##edic": 7562,
      "##rounding": 7563,
      "electrode": 7564,
      "fals": 7565,
      "2014": 7566,
      "lactate": 7567,
      "regardless": 7568,
      "2005": 7569,
      "uterine": 7570,
      "vesicles": 7571,
      "careg": 7572,
      "cation": 7573,
      "inducing": 7574,
      "heterogeneous": 7575,
      "acting": 7576,
      "principal": 7577,
      "author": 7578,
      "starting": 7579,
      "glass": 7580,
      "anth": 7581,
      "practition": 7582,
      "determin": 7583,
      "ammon": 7584,
      "delivered": 7585,
      "implants": 7586,
      "enab": 7587,
      "frontal": 7588,
      "##adily": 7589,
      "epidemiological": 7590,
      "deb": 7591,
      "heparin": 7592,
      "member": 7593,
      "uniform": 7594,
      "aberr": 7595,
      "indicators": 7596,
      "dt": 7597,
      "simulated": 7598,
      "mor": 7599,
      "epit": 7600,
      "awareness": 7601,
      "cham": 7602,
      "thal": 7603,
      "allergic": 7604,
      "thrombosis": 7605,
      "war": 7606,
      "offers": 7607,
      "films": 7608,
      "##ritic": 7609,
      "comparisons": 7610,
      "##umab": 7611,
      "consensus": 7612,
      "##ought": 7613,
      "##emat": 7614,
      "micr": 7615,
      "pathogenic": 7616,
      "inhibits": 7617,
      "##point": 7618,
      "bodies": 7619,
      "surrounding": 7620,
      "nar": 7621,
      "squamous": 7622,
      "biopsies": 7623,
      "##mod": 7624,
      "##aints": 7625,
      "empir": 7626,
      "prep": 7627,
      "subunits": 7628,
      "truncated": 7629,
      "schem": 7630,
      "cultiv": 7631,
      "##ensities": 7632,
      "2007": 7633,
      "science": 7634,
      "##arch": 7635,
      "rational": 7636,
      "lacking": 7637,
      "hplc": 7638,
      "##ime": 7639,
      "homeostasis": 7640,
      "concurr": 7641,
      "peg": 7642,
      "##ibration": 7643,
      "p4": 7644,
      "parental": 7645,
      "fetus": 7646,
      "environments": 7647,
      "##tead": 7648,
      "osteop": 7649,
      "hapl": 7650,
      "feasibility": 7651,
      "itself": 7652,
      "pelvic": 7653,
      "rupt": 7654,
      "substantially": 7655,
      "traumatic": 7656,
      "gestation": 7657,
      "residue": 7658,
      "spine": 7659,
      "professionals": 7660,
      "mast": 7661,
      "annual": 7662,
      "labeling": 7663,
      "similarity": 7664,
      "creatinine": 7665,
      "providers": 7666,
      "2006": 7667,
      "technical": 7668,
      "leaves": 7669,
      "##nel": 7670,
      "amplification": 7671,
      "subjective": 7672,
      "##avi": 7673,
      "attack": 7674,
      "cardiomy": 7675,
      "hbv": 7676,
      "etiology": 7677,
      "##elihood": 7678,
      "allowing": 7679,
      "govern": 7680,
      "testosterone": 7681,
      "detecting": 7682,
      "promoting": 7683,
      "polys": 7684,
      "##arrh": 7685,
      "consistently": 7686,
      "manifestations": 7687,
      "##heimer": 7688,
      "intrac": 7689,
      "##tisol": 7690,
      "combinations": 7691,
      "abundance": 7692,
      "alz": 7693,
      "##aden": 7694,
      "c3": 7695,
      "attr": 7696,
      "sought": 7697,
      "virt": 7698,
      "opioid": 7699,
      "sizes": 7700,
      "mono": 7701,
      "##ota": 7702,
      "weighted": 7703,
      "quad": 7704,
      "retri": 7705,
      "##aceu": 7706,
      "ram": 7707,
      "operated": 7708,
      "capillary": 7709,
      "implemented": 7710,
      "disapp": 7711,
      "malaria": 7712,
      "lp": 7713,
      "modifications": 7714,
      "##adian": 7715,
      "##azine": 7716,
      "hippocampus": 7717,
      "##anti": 7718,
      "dimethyl": 7719,
      "##ionic": 7720,
      "fasting": 7721,
      "clones": 7722,
      "##inson": 7723,
      "instead": 7724,
      "sepsis": 7725,
      "uncom": 7726,
      "gestational": 7727,
      "concerns": 7728,
      "artificial": 7729,
      "placement": 7730,
      "##mc": 7731,
      "esophageal": 7732,
      "##ounced": 7733,
      "o2": 7734,
      "##alc": 7735,
      "##onuclear": 7736,
      "initiated": 7737,
      "team": 7738,
      "fd": 7739,
      "stom": 7740,
      "resting": 7741,
      "proven": 7742,
      "supporting": 7743,
      "##graph": 7744,
      "photo": 7745,
      "guided": 7746,
      "##eded": 7747,
      "hydroxyl": 7748,
      "hypertensive": 7749,
      "coverage": 7750,
      "transcripts": 7751,
      "version": 7752,
      "alzheimer": 7753,
      "005": 7754,
      "identity": 7755,
      "ones": 7756,
      "2015": 7757,
      "##epine": 7758,
      "##oxic": 7759,
      "gut": 7760,
      "income": 7761,
      "dimensions": 7762,
      "occupational": 7763,
      "##osome": 7764,
      "##k1": 7765,
      "nanos": 7766,
      "outer": 7767,
      "prevalent": 7768,
      "percutaneous": 7769,
      "depletion": 7770,
      "likelihood": 7771,
      "translation": 7772,
      "anaesth": 7773,
      "##ectors": 7774,
      "land": 7775,
      "preventing": 7776,
      "hydrolysis": 7777,
      "interestingly": 7778,
      "circulation": 7779,
      "rb": 7780,
      "born": 7781,
      "guide": 7782,
      "chond": 7783,
      "promin": 7784,
      "peritoneal": 7785,
      "compression": 7786,
      "compliance": 7787,
      "##otides": 7788,
      "diffuse": 7789,
      "##apped": 7790,
      "fifty": 7791,
      "eeg": 7792,
      "##lin": 7793,
      "option": 7794,
      "challenging": 7795,
      "colle": 7796,
      "sympath": 7797,
      "##ulties": 7798,
      "supports": 7799,
      "symm": 7800,
      "equilibrium": 7801,
      "idi": 7802,
      "biofil": 7803,
      "adenocarcinoma": 7804,
      "accom": 7805,
      "namely": 7806,
      "contributes": 7807,
      "##ypt": 7808,
      "##icients": 7809,
      "seizures": 7810,
      "ubiqu": 7811,
      "ras": 7812,
      "digital": 7813,
      "attitudes": 7814,
      "antagonists": 7815,
      "abundant": 7816,
      "coefficients": 7817,
      "##down": 7818,
      "cann": 7819,
      "leak": 7820,
      "respondents": 7821,
      "##opausal": 7822,
      "virul": 7823,
      "microscopic": 7824,
      "researchers": 7825,
      "insp": 7826,
      "##oming": 7827,
      "consists": 7828,
      "created": 7829,
      "aneurysm": 7830,
      "raised": 7831,
      "om": 7832,
      "ot": 7833,
      "extens": 7834,
      "##itect": 7835,
      "pronounced": 7836,
      "deviation": 7837,
      "atyp": 7838,
      "ho": 7839,
      "##ietic": 7840,
      "lost": 7841,
      "evolutionary": 7842,
      "bot": 7843,
      "quantification": 7844,
      "recruit": 7845,
      "unusual": 7846,
      "##uron": 7847,
      "hippocampal": 7848,
      "##bi": 7849,
      "nonin": 7850,
      "arrest": 7851,
      "false": 7852,
      "##uity": 7853,
      "##essions": 7854,
      "girls": 7855,
      "##otoxin": 7856,
      "structured": 7857,
      "yields": 7858,
      "pren": 7859,
      "speech": 7860,
      "beginning": 7861,
      "##ophilic": 7862,
      "leuc": 7863,
      "ips": 7864,
      "ent": 7865,
      "databases": 7866,
      "tt": 7867,
      "##load": 7868,
      "lumbar": 7869,
      "anatomical": 7870,
      "ile": 7871,
      "limiting": 7872,
      "bic": 7873,
      "biosynthesis": 7874,
      "##uous": 7875,
      "absent": 7876,
      "collab": 7877,
      "inactivation": 7878,
      "cig": 7879,
      "atpase": 7880,
      "##ocys": 7881,
      "triglycer": 7882,
      "isot": 7883,
      "ablation": 7884,
      "eps": 7885,
      "indications": 7886,
      "doppler": 7887,
      "resolved": 7888,
      "vaginal": 7889,
      "##ued": 7890,
      "instit": 7891,
      "##entricular": 7892,
      "difficulties": 7893,
      "tooth": 7894,
      "reading": 7895,
      "abol": 7896,
      "##eps": 7897,
      "parasite": 7898,
      "uses": 7899,
      "whe": 7900,
      "fungal": 7901,
      "plaque": 7902,
      "rheumat": 7903,
      "##astom": 7904,
      "##ry": 7905,
      "exists": 7906,
      "gd": 7907,
      "##lip": 7908,
      "##ameth": 7909,
      "japanese": 7910,
      "ball": 7911,
      "##nia": 7912,
      "standards": 7913,
      "participated": 7914,
      "##ba": 7915,
      "auc": 7916,
      "phenotypes": 7917,
      "constitu": 7918,
      "homogene": 7919,
      "survivors": 7920,
      "ald": 7921,
      "exact": 7922,
      "efflu": 7923,
      "atherosclerosis": 7924,
      "trip": 7925,
      "°c": 7926,
      "##mented": 7927,
      "##orous": 7928,
      "##ilic": 7929,
      "##90": 7930,
      "subset": 7931,
      "rv": 7932,
      "##going": 7933,
      "fore": 7934,
      "osm": 7935,
      "changing": 7936,
      "##titis": 7937,
      "complicated": 7938,
      "malignancy": 7939,
      "quantified": 7940,
      "cortisol": 7941,
      "wk": 7942,
      "mess": 7943,
      "##27": 7944,
      "##ibular": 7945,
      "perspective": 7946,
      "brid": 7947,
      "##ana": 7948,
      "postn": 7949,
      "tlr": 7950,
      "rarely": 7951,
      "unchanged": 7952,
      "##80": 7953,
      "screened": 7954,
      "complexity": 7955,
      "chi": 7956,
      "gn": 7957,
      "galact": 7958,
      "unilateral": 7959,
      "stimulating": 7960,
      "leth": 7961,
      "flux": 7962,
      "##lastic": 7963,
      "##assay": 7964,
      "fist": 7965,
      "wash": 7966,
      "egfr": 7967,
      "##pread": 7968,
      "cumulative": 7969,
      "coated": 7970,
      "##ss": 7971,
      "interference": 7972,
      "bed": 7973,
      "ath": 7974,
      "##iasis": 7975,
      "northern": 7976,
      "li": 7977,
      "alleles": 7978,
      "grafts": 7979,
      "##ozygous": 7980,
      "wides": 7981,
      "vehicle": 7982,
      "potenti": 7983,
      "##onography": 7984,
      "selectivity": 7985,
      "habit": 7986,
      "widespread": 7987,
      "ank": 7988,
      "ways": 7989,
      "monol": 7990,
      "##uscular": 7991,
      "##rocyte": 7992,
      "vic": 7993,
      "diarrh": 7994,
      "refract": 7995,
      "vertebr": 7996,
      "start": 7997,
      "intes": 7998,
      "portion": 7999,
      "german": 8000,
      "absorb": 8001,
      "dich": 8002,
      "favorable": 8003,
      "##ilized": 8004,
      "situation": 8005,
      "decisions": 8006,
      "mother": 8007,
      "hormones": 8008,
      "representative": 8009,
      "elimination": 8010,
      "entry": 8011,
      "ask": 8012,
      "##omonas": 8013,
      "##iae": 8014,
      "hospitalization": 8015,
      "attachment": 8016,
      "##inea": 8017,
      "visits": 8018,
      "resource": 8019,
      "finger": 8020,
      "feasible": 8021,
      "##anted": 8022,
      "neigh": 8023,
      "decades": 8024,
      "2004": 8025,
      "optimized": 8026,
      "carriers": 8027,
      "kb": 8028,
      "arginine": 8029,
      "##acranial": 8030,
      "synerg": 8031,
      "actual": 8032,
      "hydrophobic": 8033,
      "enriched": 8034,
      "##opoietic": 8035,
      "dosage": 8036,
      "inhibiting": 8037,
      "perman": 8038,
      "discontin": 8039,
      "##ni": 8040,
      "princi": 8041,
      "conserv": 8042,
      "##tures": 8043,
      "conflic": 8044,
      "academic": 8045,
      "##ocortic": 8046,
      "parkinson": 8047,
      "sound": 8048,
      "retriev": 8049,
      "faster": 8050,
      "psychos": 8051,
      "##enter": 8052,
      "fine": 8053,
      "crp": 8054,
      "experimentally": 8055,
      "degeneration": 8056,
      "sud": 8057,
      "pylori": 8058,
      "semi": 8059,
      "technologies": 8060,
      "ongoing": 8061,
      "discrimination": 8062,
      "questionnaires": 8063,
      "mann": 8064,
      "##urity": 8065,
      "flap": 8066,
      "construct": 8067,
      "makes": 8068,
      "##uctase": 8069,
      "platelets": 8070,
      "obst": 8071,
      "narrow": 8072,
      "probes": 8073,
      "disruption": 8074,
      "hors": 8075,
      "protease": 8076,
      "excision": 8077,
      "represented": 8078,
      "principles": 8079,
      "maintaining": 8080,
      "##ded": 8081,
      "copd": 8082,
      "##unt": 8083,
      "ultim": 8084,
      "spher": 8085,
      "volumes": 8086,
      "##uctu": 8087,
      "involve": 8088,
      "spermat": 8089,
      "dn": 8090,
      "diets": 8091,
      "##ifer": 8092,
      "alkaline": 8093,
      "dro": 8094,
      "tension": 8095,
      "phosphatidyl": 8096,
      "preterm": 8097,
      "##ws": 8098,
      "adolescent": 8099,
      "fluctu": 8100,
      "##ulose": 8101,
      "infiltration": 8102,
      "greatest": 8103,
      "infrared": 8104,
      "##eptive": 8105,
      "excluded": 8106,
      "forces": 8107,
      "elicited": 8108,
      "vital": 8109,
      "##ocular": 8110,
      "cystic": 8111,
      "2016": 8112,
      "incubated": 8113,
      "embryo": 8114,
      "scans": 8115,
      "onto": 8116,
      "exception": 8117,
      "##odil": 8118,
      "cigar": 8119,
      "see": 8120,
      "teaching": 8121,
      "##elin": 8122,
      "##osyl": 8123,
      "partners": 8124,
      "trained": 8125,
      "##ote": 8126,
      "depos": 8127,
      "prospectively": 8128,
      "##ardi": 8129,
      "edema": 8130,
      "computational": 8131,
      "##dep": 8132,
      "timing": 8133,
      "locations": 8134,
      "consequently": 8135,
      "##p1": 8136,
      "observational": 8137,
      "##mt": 8138,
      "##ascul": 8139,
      "vulner": 8140,
      "drain": 8141,
      "phag": 8142,
      "distributions": 8143,
      "##esterone": 8144,
      "emerged": 8145,
      "##chemical": 8146,
      "vaccines": 8147,
      "eating": 8148,
      "adipose": 8149,
      "efficiently": 8150,
      "plane": 8151,
      "pts": 8152,
      "histologic": 8153,
      "accurately": 8154,
      "cytometry": 8155,
      "equation": 8156,
      "sham": 8157,
      "##fold": 8158,
      "lith": 8159,
      "solub": 8160,
      "consequence": 8161,
      "rotation": 8162,
      "##oxygen": 8163,
      "##opes": 8164,
      "prescrip": 8165,
      "##vents": 8166,
      "progesterone": 8167,
      "attempt": 8168,
      "precision": 8169,
      "diagnoses": 8170,
      "closure": 8171,
      "serotonin": 8172,
      "##romy": 8173,
      "optic": 8174,
      "microscop": 8175,
      "translocation": 8176,
      "univers": 8177,
      "akt": 8178,
      "determinants": 8179,
      "contamination": 8180,
      "hor": 8181,
      "oxidase": 8182,
      "reversible": 8183,
      "categor": 8184,
      "##agul": 8185,
      "phenotypic": 8186,
      "##vas": 8187,
      "rejection": 8188,
      "atm": 8189,
      "intraoperative": 8190,
      "##holds": 8191,
      "cyan": 8192,
      "gonad": 8193,
      "performing": 8194,
      "responsive": 8195,
      "preferred": 8196,
      "indicator": 8197,
      "cloned": 8198,
      "larv": 8199,
      "##28": 8200,
      "gy": 8201,
      "visible": 8202,
      "alveolar": 8203,
      "elucidate": 8204,
      "law": 8205,
      "metabolite": 8206,
      "subtypes": 8207,
      "agonists": 8208,
      "##atile": 8209,
      "modern": 8210,
      "generalized": 8211,
      "carrier": 8212,
      "warr": 8213,
      "##ometer": 8214,
      "microc": 8215,
      "explan": 8216,
      "linkage": 8217,
      "##yster": 8218,
      "splic": 8219,
      "supply": 8220,
      "downreg": 8221,
      "dissection": 8222,
      "ly": 8223,
      "genus": 8224,
      "rf": 8225,
      "colony": 8226,
      "assessments": 8227,
      "obvious": 8228,
      "diffr": 8229,
      "anastom": 8230,
      "library": 8231,
      "synchron": 8232,
      "##bb": 8233,
      "combining": 8234,
      "readily": 8235,
      "text": 8236,
      "closed": 8237,
      "demonstrating": 8238,
      "effort": 8239,
      "postm": 8240,
      "##eed": 8241,
      "##ometrial": 8242,
      "##oded": 8243,
      "reductions": 8244,
      "##zing": 8245,
      "morphine": 8246,
      "##rene": 8247,
      "needle": 8248,
      "dark": 8249,
      "ionic": 8250,
      "##itic": 8251,
      "##amycin": 8252,
      "##ders": 8253,
      "bulk": 8254,
      "##21": 8255,
      "superoxide": 8256,
      "description": 8257,
      "##26": 8258,
      "acceptable": 8259,
      "regimens": 8260,
      "confer": 8261,
      "aver": 8262,
      "##aster": 8263,
      "outside": 8264,
      "million": 8265,
      "nin": 8266,
      "stiff": 8267,
      "mom": 8268,
      "##tice": 8269,
      "carboxyl": 8270,
      "hol": 8271,
      "sequential": 8272,
      "reflex": 8273,
      "tab": 8274,
      "sclerosis": 8275,
      "km": 8276,
      "consideration": 8277,
      "representing": 8278,
      "mos": 8279,
      "former": 8280,
      "panel": 8281,
      "##rotic": 8282,
      "ans": 8283,
      "accep": 8284,
      "encour": 8285,
      "hyd": 8286,
      "##ah": 8287,
      "##ani": 8288,
      "##rd": 8289,
      "antit": 8290,
      "##itting": 8291,
      "uk": 8292,
      "just": 8293,
      "selectively": 8294,
      "studying": 8295,
      "##enol": 8296,
      "chromosomal": 8297,
      "trach": 8298,
      "architect": 8299,
      "quantify": 8300,
      "complementary": 8301,
      "postnatal": 8302,
      "inher": 8303,
      "##iph": 8304,
      "modes": 8305,
      "occas": 8306,
      "outpatient": 8307,
      "vision": 8308,
      "downstream": 8309,
      "incorporated": 8310,
      "chromosomes": 8311,
      "##24": 8312,
      "##ocr": 8313,
      "##ocellular": 8314,
      "follows": 8315,
      "atypical": 8316,
      "aqu": 8317,
      "estradiol": 8318,
      "fibrill": 8319,
      "mhc": 8320,
      "##agland": 8321,
      "##inf": 8322,
      "##matic": 8323,
      "deter": 8324,
      "reveals": 8325,
      "surgeons": 8326,
      "##itization": 8327,
      "##born": 8328,
      "##avelength": 8329,
      "dd": 8330,
      "2003": 8331,
      "##quin": 8332,
      "couns": 8333,
      "braz": 8334,
      "improves": 8335,
      "ensure": 8336,
      "##2a": 8337,
      "filtration": 8338,
      "expressions": 8339,
      "##ograft": 8340,
      "immunoglobulin": 8341,
      "addressed": 8342,
      "##ieved": 8343,
      "disappear": 8344,
      "ls": 8345,
      "ze": 8346,
      "square": 8347,
      "##tes": 8348,
      "perfor": 8349,
      "s1": 8350,
      "corrected": 8351,
      "diverg": 8352,
      "##related": 8353,
      "dox": 8354,
      "race": 8355,
      "dye": 8356,
      "suffering": 8357,
      "##day": 8358,
      "neutrophils": 8359,
      "##°c": 8360,
      "prominent": 8361,
      "largest": 8362,
      "shared": 8363,
      "encephal": 8364,
      "boys": 8365,
      "refractory": 8366,
      "##erin": 8367,
      "##lam": 8368,
      "tag": 8369,
      "immunological": 8370,
      "conformation": 8371,
      "epidermal": 8372,
      "route": 8373,
      "sb": 8374,
      "ger": 8375,
      "##mia": 8376,
      "##ato": 8377,
      "glycer": 8378,
      "datas": 8379,
      "stronger": 8380,
      "##odef": 8381,
      "scattering": 8382,
      "suicide": 8383,
      "sessions": 8384,
      "stop": 8385,
      "##ret": 8386,
      "bonds": 8387,
      "ke": 8388,
      "##rown": 8389,
      "intestine": 8390,
      "reinfor": 8391,
      "##infl": 8392,
      "enable": 8393,
      "sediment": 8394,
      "priv": 8395,
      "ige": 8396,
      "sheep": 8397,
      "powerful": 8398,
      "subcl": 8399,
      "examples": 8400,
      "embed": 8401,
      "##estive": 8402,
      "premature": 8403,
      "angiogenesis": 8404,
      "recruitment": 8405,
      "##carb": 8406,
      "##atible": 8407,
      "homologous": 8408,
      "stained": 8409,
      "nos": 8410,
      "##ison": 8411,
      "##iar": 8412,
      "##theless": 8413,
      "produces": 8414,
      "nevertheless": 8415,
      "wet": 8416,
      "extend": 8417,
      "negl": 8418,
      "##ocon": 8419,
      "withdrawal": 8420,
      "respective": 8421,
      "mycobacter": 8422,
      "enhancing": 8423,
      "correlates": 8424,
      "bab": 8425,
      "repeti": 8426,
      "guinea": 8427,
      "##tors": 8428,
      "2002": 8429,
      "##break": 8430,
      "drop": 8431,
      "immunofluores": 8432,
      "##osyst": 8433,
      "rectal": 8434,
      "pes": 8435,
      "considerably": 8436,
      "operations": 8437,
      "somatic": 8438,
      "microarr": 8439,
      "carbohydrate": 8440,
      "anemia": 8441,
      "##enari": 8442,
      "offsp": 8443,
      "youth": 8444,
      "proliferative": 8445,
      "endocrine": 8446,
      "immunodef": 8447,
      "##au": 8448,
      "modulate": 8449,
      "antico": 8450,
      "tolerated": 8451,
      "resemb": 8452,
      "003": 8453,
      "organism": 8454,
      "intersti": 8455,
      "passive": 8456,
      "##cine": 8457,
      "secreted": 8458,
      "nurse": 8459,
      "echocardiography": 8460,
      "sou": 8461,
      "##uly": 8462,
      "##ophyl": 8463,
      "##vel": 8464,
      "object": 8465,
      "intracranial": 8466,
      "integrity": 8467,
      "corticoster": 8468,
      "##anned": 8469,
      "prostagland": 8470,
      "##omorph": 8471,
      "harv": 8472,
      "##29": 8473,
      "dendritic": 8474,
      "portal": 8475,
      "qt": 8476,
      "histopathological": 8477,
      "##amus": 8478,
      "dic": 8479,
      "proportional": 8480,
      "presum": 8481,
      "pharmaceu": 8482,
      "uc": 8483,
      "tor": 8484,
      "dw": 8485,
      "encoded": 8486,
      "tn": 8487,
      "gla": 8488,
      "vertical": 8489,
      "oa": 8490,
      "deterior": 8491,
      "obstructive": 8492,
      "shaped": 8493,
      "##electric": 8494,
      "formulation": 8495,
      "viable": 8496,
      "screen": 8497,
      "comorbid": 8498,
      "##iary": 8499,
      "um": 8500,
      "differentially": 8501,
      "##omotor": 8502,
      "##ticular": 8503,
      "##ou": 8504,
      "diminished": 8505,
      "motility": 8506,
      "nps": 8507,
      "tf": 8508,
      "##aving": 8509,
      "blast": 8510,
      "wind": 8511,
      "postoperatively": 8512,
      "radiograph": 8513,
      "consult": 8514,
      "dyst": 8515,
      "##oor": 8516,
      "commit": 8517,
      "easy": 8518,
      "noc": 8519,
      "preference": 8520,
      "wavelength": 8521,
      "offspring": 8522,
      "##ectom": 8523,
      "outbreak": 8524,
      "kd": 8525,
      "##opl": 8526,
      "transduction": 8527,
      "fatal": 8528,
      "fertil": 8529,
      "southern": 8530,
      "##ophila": 8531,
      "engineering": 8532,
      "nmol": 8533,
      "##romes": 8534,
      "blockade": 8535,
      "sixty": 8536,
      "##ivariate": 8537,
      "dissociation": 8538,
      "kappa": 8539,
      "##65": 8540,
      "incom": 8541,
      "neutrophil": 8542,
      "instability": 8543,
      "##platin": 8544,
      "enl": 8545,
      "exhibits": 8546,
      "bes": 8547,
      "##nea": 8548,
      "june": 8549,
      "cov": 8550,
      "bands": 8551,
      "cirrhosis": 8552,
      "remodeling": 8553,
      "activator": 8554,
      "##ided": 8555,
      "##adic": 8556,
      "chromatin": 8557,
      "terti": 8558,
      "2001": 8559,
      "situations": 8560,
      "reag": 8561,
      "##arp": 8562,
      "##iplinary": 8563,
      "##iol": 8564,
      "lungs": 8565,
      "##ada": 8566,
      "##embr": 8567,
      "electroc": 8568,
      "accounted": 8569,
      "infiltr": 8570,
      "platform": 8571,
      "rice": 8572,
      "sympathetic": 8573,
      "buffer": 8574,
      "aorta": 8575,
      "brazil": 8576,
      "depr": 8577,
      "##isph": 8578,
      "responded": 8579,
      "ham": 8580,
      "##angement": 8581,
      "pkc": 8582,
      "worse": 8583,
      "scenari": 8584,
      "competitive": 8585,
      "preventive": 8586,
      "emphasis": 8587,
      "meaning": 8588,
      "pathologic": 8589,
      "walking": 8590,
      "hepatocytes": 8591,
      "transformed": 8592,
      "neuros": 8593,
      "##otes": 8594,
      "permanent": 8595,
      "ars": 8596,
      "tree": 8597,
      "nutrient": 8598,
      "cocaine": 8599,
      "derivative": 8600,
      "##ococcal": 8601,
      "##encephal": 8602,
      "transfected": 8603,
      "##ephal": 8604,
      "##ordance": 8605,
      "##omeric": 8606,
      "tertiary": 8607,
      "lac": 8608,
      "##orbent": 8609,
      "promoted": 8610,
      "osteopor": 8611,
      "hypers": 8612,
      "##ulates": 8613,
      "radiological": 8614,
      "inos": 8615,
      "##xy": 8616,
      "dissem": 8617,
      "country": 8618,
      "histor": 8619,
      "inside": 8620,
      "managed": 8621,
      "centre": 8622,
      "roots": 8623,
      "##inflamm": 8624,
      "protect": 8625,
      "shell": 8626,
      "cisplatin": 8627,
      "width": 8628,
      "overview": 8629,
      "obl": 8630,
      "comprom": 8631,
      "doub": 8632,
      "##avirus": 8633,
      "deficit": 8634,
      "mirnas": 8635,
      "formula": 8636,
      "hl": 8637,
      "igm": 8638,
      "psychosocial": 8639,
      "spor": 8640,
      "shear": 8641,
      "personality": 8642,
      "qol": 8643,
      "surfact": 8644,
      "##empor": 8645,
      "keratin": 8646,
      "monocytes": 8647,
      "trp": 8648,
      "destr": 8649,
      "duoden": 8650,
      "canal": 8651,
      "reductase": 8652,
      "##usively": 8653,
      "incomplet": 8654,
      "automated": 8655,
      "participate": 8656,
      "prenatal": 8657,
      "comprised": 8658,
      "elastic": 8659,
      "anaer": 8660,
      "modalities": 8661,
      "apparently": 8662,
      "coordination": 8663,
      "online": 8664,
      "nonline": 8665,
      "programme": 8666,
      "propag": 8667,
      "##ora": 8668,
      "gastr": 8669,
      "sca": 8670,
      "##mg": 8671,
      "focusing": 8672,
      "glands": 8673,
      "acidic": 8674,
      "##flow": 8675,
      "implanted": 8676,
      "tach": 8677,
      "chor": 8678,
      "overweight": 8679,
      "malform": 8680,
      "acts": 8681,
      "##2o": 8682,
      "ft": 8683,
      "##pro": 8684,
      "metals": 8685,
      "season": 8686,
      "##alling": 8687,
      "##ograms": 8688,
      "stimulate": 8689,
      "##arged": 8690,
      "##yd": 8691,
      "excitation": 8692,
      "##asone": 8693,
      "##acerb": 8694,
      "##atum": 8695,
      "somat": 8696,
      "contributed": 8697,
      "harm": 8698,
      "exacerb": 8699,
      "##uits": 8700,
      "subgroups": 8701,
      "##times": 8702,
      "##rane": 8703,
      "atoms": 8704,
      "border": 8705,
      "##atibility": 8706,
      "##off": 8707,
      "glomerular": 8708,
      "larvae": 8709,
      "visit": 8710,
      "web": 8711,
      "leptin": 8712,
      "wat": 8713,
      "topical": 8714,
      "aromatic": 8715,
      "numerical": 8716,
      "incident": 8717,
      "sen": 8718,
      "depressed": 8719,
      "arrhythm": 8720,
      "##phthal": 8721,
      "discovered": 8722,
      "##plicit": 8723,
      "satisfactory": 8724,
      "##ert": 8725,
      "mutagen": 8726,
      "normally": 8727,
      "excessive": 8728,
      "##actin": 8729,
      "endometrial": 8730,
      "fgf": 8731,
      "blocking": 8732,
      "redox": 8733,
      "applying": 8734,
      "ecological": 8735,
      "dermat": 8736,
      "genetically": 8737,
      "intrav": 8738,
      "cytoplasm": 8739,
      "decade": 8740,
      "##acycl": 8741,
      "diffraction": 8742,
      "td": 8743,
      "merc": 8744,
      "lr": 8745,
      "##oxacin": 8746,
      "immunization": 8747,
      "mesenchymal": 8748,
      "pressures": 8749,
      "chamber": 8750,
      "pathophysiology": 8751,
      "nonlinear": 8752,
      "minute": 8753,
      "manu": 8754,
      "abolished": 8755,
      "pow": 8756,
      "pilot": 8757,
      "biliary": 8758,
      "horiz": 8759,
      "##osus": 8760,
      "intraper": 8761,
      "pregnancies": 8762,
      "lobe": 8763,
      "vacu": 8764,
      "adapted": 8765,
      "item": 8766,
      "mobile": 8767,
      "urea": 8768,
      "yr": 8769,
      "##athyroid": 8770,
      "gsh": 8771,
      "##clc": 8772,
      "##ubation": 8773,
      "retained": 8774,
      "##eptides": 8775,
      "replic": 8776,
      "##ulmonary": 8777,
      "empirical": 8778,
      "nd": 8779,
      "accepted": 8780,
      "sea": 8781,
      "atrophy": 8782,
      "##inter": 8783,
      "math": 8784,
      "carrying": 8785,
      "patch": 8786,
      "quick": 8787,
      "importantly": 8788,
      "veter": 8789,
      "industry": 8790,
      "ventral": 8791,
      "fruit": 8792,
      "span": 8793,
      "idiopathic": 8794,
      "manufact": 8795,
      "innov": 8796,
      "##ancer": 8797,
      "isolate": 8798,
      "evid": 8799,
      "rearr": 8800,
      "180": 8801,
      "encountered": 8802,
      "lifest": 8803,
      "cysteine": 8804,
      "pancreas": 8805,
      "highlights": 8806,
      "paired": 8807,
      "vascul": 8808,
      "tight": 8809,
      "nicotine": 8810,
      "trich": 8811,
      "dyn": 8812,
      "candidates": 8813,
      "recombination": 8814,
      "subtype": 8815,
      "secretory": 8816,
      "##anal": 8817,
      "overcome": 8818,
      "##ai": 8819,
      "endomet": 8820,
      "burn": 8821,
      "##affected": 8822,
      "templ": 8823,
      "interstitial": 8824,
      "##ica": 8825,
      "practitioners": 8826,
      "##phosphate": 8827,
      "oocytes": 8828,
      "atomic": 8829,
      "capture": 8830,
      "contributing": 8831,
      "potency": 8832,
      "assumption": 8833,
      "##ortions": 8834,
      "biomass": 8835,
      "prolifer": 8836,
      "critically": 8837,
      "optimization": 8838,
      "##ropl": 8839,
      "endothelium": 8840,
      "surveys": 8841,
      "staphylococcus": 8842,
      "ideal": 8843,
      "industrial": 8844,
      "##adequ": 8845,
      "loaded": 8846,
      "##orec": 8847,
      "hos": 8848,
      "##oustic": 8849,
      "binds": 8850,
      "lev": 8851,
      "inadequ": 8852,
      "##asic": 8853,
      "apical": 8854,
      "##agnetic": 8855,
      "hams": 8856,
      "started": 8857,
      "1990": 8858,
      "##rod": 8859,
      "##ardia": 8860,
      "cultural": 8861,
      "##akes": 8862,
      "radiographic": 8863,
      "110": 8864,
      "stromal": 8865,
      "rheumatoid": 8866,
      "##oli": 8867,
      "##iration": 8868,
      "drainage": 8869,
      "iga": 8870,
      "tended": 8871,
      "alt": 8872,
      "stret": 8873,
      "stomach": 8874,
      "elong": 8875,
      "scar": 8876,
      "activating": 8877,
      "unaffected": 8878,
      "mitral": 8879,
      "##uncture": 8880,
      "enables": 8881,
      "##roz": 8882,
      "responsiveness": 8883,
      "##ero": 8884,
      "nano": 8885,
      "create": 8886,
      "##odon": 8887,
      "##cn": 8888,
      "pep": 8889,
      "serial": 8890,
      "difficulty": 8891,
      "histamine": 8892,
      "microt": 8893,
      "let": 8894,
      "contral": 8895,
      "psa": 8896,
      "differentiate": 8897,
      "hypertrophy": 8898,
      "catech": 8899,
      "##inating": 8900,
      "manual": 8901,
      "lute": 8902,
      "category": 8903,
      "##ians": 8904,
      "adjusting": 8905,
      "##osan": 8906,
      "inducible": 8907,
      "##osures": 8908,
      "euk": 8909,
      "sib": 8910,
      "mood": 8911,
      "##ools": 8912,
      "glauc": 8913,
      "##ocin": 8914,
      "spp": 8915,
      "perceptions": 8916,
      "concurrent": 8917,
      "nerves": 8918,
      "salmonella": 8919,
      "adduc": 8920,
      "sugar": 8921,
      "fear": 8922,
      "trait": 8923,
      "regulates": 8924,
      "attempts": 8925,
      "radial": 8926,
      "statistics": 8927,
      "alteration": 8928,
      "hu": 8929,
      "clarify": 8930,
      "video": 8931,
      "immunodeficiency": 8932,
      "processed": 8933,
      "snps": 8934,
      "##vasive": 8935,
      "retard": 8936,
      "##oar": 8937,
      "isoforms": 8938,
      "microbi": 8939,
      "modulated": 8940,
      "protected": 8941,
      "ethnic": 8942,
      "eukary": 8943,
      "##vis": 8944,
      "student": 8945,
      "conformational": 8946,
      "predisp": 8947,
      "coating": 8948,
      "##rox": 8949,
      "t3": 8950,
      "unexp": 8951,
      "biomarker": 8952,
      "ki": 8953,
      "##rt": 8954,
      "##nat": 8955,
      "amel": 8956,
      "pge": 8957,
      "latency": 8958,
      "demand": 8959,
      "sds": 8960,
      "utilizing": 8961,
      "dimer": 8962,
      "perm": 8963,
      "##rile": 8964,
      "tendon": 8965,
      "traff": 8966,
      "posts": 8967,
      "continue": 8968,
      "immunoreactivity": 8969,
      "march": 8970,
      "foods": 8971,
      "lin": 8972,
      "malignancies": 8973,
      "##isciplinary": 8974,
      "filter": 8975,
      "mediate": 8976,
      "substituted": 8977,
      "icu": 8978,
      "newborn": 8979,
      "contralateral": 8980,
      "predictions": 8981,
      "##ometh": 8982,
      "cattle": 8983,
      "weekly": 8984,
      "perturb": 8985,
      "exon": 8986,
      "##oderm": 8987,
      "##opyr": 8988,
      "algorithms": 8989,
      "acuity": 8990,
      "seizure": 8991,
      "aerobic": 8992,
      "sensing": 8993,
      "hemisph": 8994,
      "synergistic": 8995,
      "hypot": 8996,
      "##agic": 8997,
      "##avail": 8998,
      "rupture": 8999,
      "adp": 9000,
      "pin": 9001,
      "##ci": 9002,
      "rrna": 9003,
      "cats": 9004,
      "##plex": 9005,
      "city": 9006,
      "##cepts": 9007,
      "stiffness": 9008,
      "blocks": 9009,
      "600": 9010,
      "axial": 9011,
      "bipolar": 9012,
      "intell": 9013,
      "quar": 9014,
      "opposite": 9015,
      "##lings": 9016,
      "histology": 9017,
      "believed": 9018,
      "##arcoma": 9019,
      "microorgan": 9020,
      "neuron": 9021,
      "##fort": 9022,
      "eligible": 9023,
      "displacement": 9024,
      "learn": 9025,
      "asked": 9026,
      "##entis": 9027,
      "##iable": 9028,
      "##ropathy": 9029,
      "night": 9030,
      "rhythm": 9031,
      "antidep": 9032,
      "##tructure": 9033,
      "registered": 9034,
      "digestion": 9035,
      "scheme": 9036,
      "turnover": 9037,
      "unlike": 9038,
      "beh": 9039,
      "unrelated": 9040,
      "ppm": 9041,
      "prophylaxis": 9042,
      "bf": 9043,
      "mab": 9044,
      "fourth": 9045,
      "guidance": 9046,
      "##cious": 9047,
      "systematically": 9048,
      "virulence": 9049,
      "constants": 9050,
      "##hd": 9051,
      "disturbances": 9052,
      "anthrop": 9053,
      "glucocortic": 9054,
      "caud": 9055,
      "##gia": 9056,
      "bmd": 9057,
      "sun": 9058,
      "tau": 9059,
      "wheat": 9060,
      "##49": 9061,
      "fs": 9062,
      "exclusively": 9063,
      "optimum": 9064,
      "signalling": 9065,
      "##orp": 9066,
      "austral": 9067,
      "neurom": 9068,
      "tand": 9069,
      "mononuclear": 9070,
      "ging": 9071,
      "ti": 9072,
      "exposures": 9073,
      "soy": 9074,
      "##asty": 9075,
      "medull": 9076,
      "xyl": 9077,
      "mum": 9078,
      "casc": 9079,
      "atmosph": 9080,
      "coagulation": 9081,
      "##lands": 9082,
      "prescribed": 9083,
      "facilities": 9084,
      "tap": 9085,
      "sap": 9086,
      "compartment": 9087,
      "chemistry": 9088,
      "activate": 9089,
      "1999": 9090,
      "cows": 9091,
      "gradually": 9092,
      "fasc": 9093,
      "##43": 9094,
      "descriptive": 9095,
      "jour": 9096,
      "explo": 9097,
      "tendency": 9098,
      "immunofluorescence": 9099,
      "flexible": 9100,
      "esophag": 9101,
      "peric": 9102,
      "##elves": 9103,
      "##nis": 9104,
      "je": 9105,
      "microgl": 9106,
      "citr": 9107,
      "adrenergic": 9108,
      "mammary": 9109,
      "hematopoietic": 9110,
      "##elve": 9111,
      "##ees": 9112,
      "##ulder": 9113,
      "rn": 9114,
      "##opsis": 9115,
      "twelve": 9116,
      "reflected": 9117,
      "fitness": 9118,
      "androgen": 9119,
      "transporter": 9120,
      "##mitt": 9121,
      "declined": 9122,
      "static": 9123,
      "##sych": 9124,
      "kore": 9125,
      "fig": 9126,
      "regulator": 9127,
      "goals": 9128,
      "##economic": 9129,
      "bay": 9130,
      "peroxidase": 9131,
      "climate": 9132,
      "disrup": 9133,
      "examining": 9134,
      "salivary": 9135,
      "ef": 9136,
      "##umor": 9137,
      "##pecific": 9138,
      "##56": 9139,
      "tandem": 9140,
      "antidepress": 9141,
      "tetra": 9142,
      "hepatocellular": 9143,
      "##osen": 9144,
      "uncommon": 9145,
      "covered": 9146,
      "neuropsych": 9147,
      "opening": 9148,
      "##eres": 9149,
      "##lem": 9150,
      "severely": 9151,
      "oes": 9152,
      "opportunities": 9153,
      "expanded": 9154,
      "bt": 9155,
      "accelerated": 9156,
      "impacts": 9157,
      "sulph": 9158,
      "porcine": 9159,
      "africa": 9160,
      "equally": 9161,
      "antiv": 9162,
      "mixtures": 9163,
      "shoulder": 9164,
      "embedded": 9165,
      "answ": 9166,
      "driving": 9167,
      "fibrillation": 9168,
      "##bil": 9169,
      "headache": 9170,
      "##iking": 9171,
      "##pes": 9172,
      "##iod": 9173,
      "serine": 9174,
      "conv": 9175,
      "sudden": 9176,
      "autophag": 9177,
      "discusses": 9178,
      "claim": 9179,
      "helpful": 9180,
      "distinc": 9181,
      "autologous": 9182,
      "ecg": 9183,
      "irre": 9184,
      "##odialysis": 9185,
      "eosinophil": 9186,
      "division": 9187,
      "inverse": 9188,
      "##apt": 9189,
      "##enopausal": 9190,
      "controversial": 9191,
      "##ynaptic": 9192,
      "marine": 9193,
      "lifestyle": 9194,
      "upd": 9195,
      "returned": 9196,
      "registration": 9197,
      "##aments": 9198,
      "##ptic": 9199,
      "lineage": 9200,
      "##inosa": 9201,
      "sucrose": 9202,
      "##chlor": 9203,
      "##uation": 9204,
      "##embrane": 9205,
      "supplemented": 9206,
      "##ception": 9207,
      "##glyc": 9208,
      "dros": 9209,
      "electric": 9210,
      "concepts": 9211,
      "frame": 9212,
      "saturation": 9213,
      "##aint": 9214,
      "syndromes": 9215,
      "rated": 9216,
      "dramatically": 9217,
      "institute": 9218,
      "ventricle": 9219,
      "too": 9220,
      "partly": 9221,
      "chosen": 9222,
      "superficial": 9223,
      "##amethasone": 9224,
      "genomes": 9225,
      "adhd": 9226,
      "july": 9227,
      "##accharides": 9228,
      "##ques": 9229,
      "indication": 9230,
      "##ariable": 9231,
      "building": 9232,
      "share": 9233,
      "cvd": 9234,
      "neurode": 9235,
      "configuration": 9236,
      "##ectable": 9237,
      "circular": 9238,
      "ophthal": 9239,
      "##opolys": 9240,
      "##imetry": 9241,
      "##erge": 9242,
      "neurodegen": 9243,
      "gyn": 9244,
      "vectors": 9245,
      "birds": 9246,
      "##idium": 9247,
      "bif": 9248,
      "ventil": 9249,
      "financ": 9250,
      "offered": 9251,
      "bud": 9252,
      "##gone": 9253,
      "shifts": 9254,
      "tac": 9255,
      "property": 9256,
      "restored": 9257,
      "tip": 9258,
      "c57": 9259,
      "conven": 9260,
      "homology": 9261,
      "usefulness": 9262,
      "investigating": 9263,
      "usual": 9264,
[...]
